<unk>	0
<s>	0
</s>	0
<cls>	0
<sep>	0
<pad>	0
<mask>	0
<eod>	0
<eop>	0
。	0
、	0
「	0
」	0
『	0
』	0
.	0
(	0
)	0
"	0
-	0
–	0
£	0
€	0
の	-1.71575
▁	-3.41623
は	-4.05691
が	-4.3572
に	-4.58091
を	-4.61147
・	-4.67592
年	-4.77772
と	-4.8233
で	-4.89667
も	-5.52731
月	-5.53304
から	-5.65008
や	-5.76791
である	-5.81148
した	-5.85424
2	-5.85524
し	-5.85781
1	-5.86592
日	-6.0213
3	-6.07594
として	-6.17744
する	-6.19247
た	-6.28226
では	-6.34484
4	-6.34699
な	-6.46106
など	-6.48376
には	-6.51624
して	-6.57756
5	-6.58811
人	-6.6146
その	-6.63086
る	-6.63612
て	-6.64876
という	-6.7258
か	-6.76563
へ	-6.77288
6	-6.79229
大	-6.83181
年に	-6.84469
7	-6.87843
された	-6.88518
10	-6.89196
している	-6.91864
▁また	-6.92522
8	-6.9319
一	-6.99218
お	-6.99866
この	-7.01466
中	-7.02203
第	-7.02354
9	-7.02674
ス	-7.02704
ている	-7.0989
市	-7.11221
り	-7.15515
上	-7.15869
12	-7.16192
ため	-7.16501
であった	-7.17885
山	-7.20224
日に	-7.20911
い	-7.23595
後	-7.24637
11	-7.25243
され	-7.26813
▁この	-7.26996
によって	-7.28776
による	-7.31683
だ	-7.31797
となった	-7.32017
まで	-7.33047
町	-7.3332
であり	-7.33321
により	-7.34771
子	-7.3535
:	-7.35722
家	-7.38136
より	-7.38287
国	-7.38476
ア	-7.39621
本	-7.40216
がある	-7.40584
名	-7.41642
ら	-7.4188
日本	-7.42081
き	-7.45929
者	-7.46636
時	-7.47035
▁しかし	-7.51043
ト	-7.51343
される	-7.51626
でも	-7.51935
く	-7.52355
だった	-7.53454
ド	-7.53818
にも	-7.54652
川	-7.54728
み	-7.55352
となる	-7.57732
,	-7.57743
前	-7.58406
下	-7.58664
分	-7.5886
ク	-7.5899
新	-7.59153
ズ	-7.59175
部	-7.5967
長	-7.59681
三	-7.60643
内	-7.61246
回	-7.62021
ある	-7.62429
った	-7.62444
ラ	-7.635
カ	-7.64007
つ	-7.64034
ていた	-7.65474
水	-7.65666
って	-7.65709
線	-7.65967
15	-7.67194
ない	-7.67664
手	-7.68446
こと	-7.68582
されている	-7.68686
道	-7.69144
していた	-7.69324
島	-7.70024
ナ	-7.70256
元	-7.70929
的な	-7.7099
小	-7.71509
20	-7.71989
的	-7.73021
法	-7.74287
昭和	-7.74328
間	-7.74942
駅	-7.7592
性	-7.76312
田	-7.76373
において	-7.77891
等	-7.78003
高	-7.78777
す	-7.79507
!	-7.7963
また	-7.80096
17	-7.81122
生	-7.81273
さ	-7.81928
郡	-7.82259
16	-7.8301
よ	-7.83717
村	-7.84466
いた	-7.84507
戦	-7.84652
リ	-7.84789
位	-7.84847
月に	-7.84862
二	-7.85264
タ	-7.85384
s	-7.85623
号	-7.85946
用	-7.86351
数	-7.86513
マ	-7.86733
A	-7.86873
型	-7.87011
神	-7.87689
見	-7.88645
18	-7.88853
ル	-7.89879
ノ	-7.90965
コ	-7.91175
東	-7.91463
m	-7.91804
14	-7.91895
30	-7.92515
/	-7.92856
大学	-7.92998
西	-7.93193
同	-7.93282
地	-7.93549
州	-7.93629
レ	-7.93801
う	-7.93907
および	-7.94964
化	-7.95009
会	-7.95168
となり	-7.96072
B	-7.96898
にある	-7.97275
C	-7.97496
ム	-7.97725
S	-7.97727
物	-7.97885
南	-7.98324
軍	-7.98611
サ	-7.99603
とは	-7.99815
目	-8.00534
金	-8.00601
世界	-8.00836
ロ	-8.01532
13	-8.01551
デ	-8.02475
こ	-8.02885
形	-8.03027
系	-8.04031
バ	-8.04965
木	-8.05001
エ	-8.05462
城	-8.05708
北	-8.05782
▁その	-8.06063
ツ	-8.06874
フ	-8.07162
ダ	-8.07208
オ	-8.07226
イ	-8.07693
▁なお	-8.08032
式	-8.08304
代	-8.08366
約	-8.08443
年には	-8.08489
――	-8.08567
シ	-8.08752
=	-8.09893
方	-8.09922
における	-8.10225
について	-8.10242
王	-8.10691
文	-8.11144
語	-8.11496
あ	-8.12496
作品	-8.12521
力	-8.13137
事	-8.13244
平成	-8.13365
無	-8.13474
野	-8.13595
ように	-8.13598
放送	-8.1387
女	-8.14079
外	-8.14386
行	-8.14481
への	-8.1486
石	-8.15032
世	-8.16148
映画	-8.16981
御	-8.17016
F	-8.17222
チ	-8.17611
光	-8.17764
ニ	-8.18034
心	-8.18409
口	-8.18545
▁その後	-8.18793
海	-8.18938
キ	-8.19197
機	-8.19255
風	-8.1929
所	-8.19338
東京	-8.19341
平	-8.19826
となっている	-8.19858
出	-8.19938
区	-8.20267
ミ	-8.21345
原	-8.21531
作	-8.21532
とも	-8.21652
ながら	-8.2167
ね	-8.21783
M	-8.21855
ジ	-8.22203
社	-8.22245
気	-8.22592
全	-8.22818
車	-8.22827
です	-8.22913
度	-8.22966
マン	-8.23167
19	-8.23491
になった	-8.23687
寺	-8.23798
25	-8.23855
ひ	-8.2389
正	-8.24168
ガ	-8.24229
にて	-8.24458
ま	-8.24893
ことを	-8.25781
む	-8.25793
立	-8.26085
ており	-8.26102
年から	-8.26382
屋	-8.26941
?	-8.2708
話	-8.27136
リー	-8.2782
0	-8.2798
地域	-8.28392
体	-8.28653
後に	-8.28664
書	-8.28874
D	-8.28936
氏	-8.28983
勝	-8.29113
馬	-8.29119
ネ	-8.29857
研究	-8.30038
面	-8.30069
め	-8.30613
重	-8.30677
があり	-8.31334
ハ	-8.31434
点	-8.3166
学	-8.31808
不	-8.32105
になる	-8.32439
21	-8.32464
ほど	-8.32621
公	-8.3306
G	-8.33391
ず	-8.33529
とする	-8.33913
▁そして	-8.34309
曲	-8.34464
万	-8.34531
現	-8.3456
白	-8.34601
ザ	-8.34622
各	-8.34691
24	-8.34736
チーム	-8.34859
頭	-8.3521
ブ	-8.36667
ティ	-8.36697
ン	-8.36895
時間	-8.37146
んだ	-8.37333
シリーズ	-8.37381
活動	-8.37697
初	-8.37728
K	-8.38028
アメリカ	-8.38176
T	-8.38177
R	-8.38763
種	-8.38837
期	-8.39292
え	-8.39899
ディ	-8.39967
場	-8.40297
さん	-8.4053
22	-8.40666
版	-8.40972
男	-8.41169
ち	-8.4167
番組	-8.41817
色	-8.41977
に対して	-8.42101
花	-8.42287
23	-8.42521
和	-8.42677
グ	-8.42882
両	-8.42945
メ	-8.43011
明	-8.43526
局	-8.43622
天	-8.43714
開発	-8.43763
いる	-8.43835
先	-8.43931
プ	-8.44015
旧	-8.44024
直	-8.44038
出身	-8.44343
ような	-8.44767
県	-8.45347
美	-8.45515
わ	-8.45848
テ	-8.46238
モ	-8.46386
及び	-8.46602
ゲーム	-8.46766
パ	-8.47167
主	-8.47232
P	-8.4741
鉄道	-8.47488
明治	-8.47547
すると	-8.47816
イン	-8.47982
音楽	-8.48012
っている	-8.48037
を持つ	-8.48166
監督	-8.48206
流	-8.48363
着	-8.48632
N	-8.48777
音	-8.48947
日本の	-8.49646
義	-8.49722
船	-8.49739
門	-8.4995
通	-8.50032
派	-8.50279
ウ	-8.50529
28	-8.50669
別	-8.50705
朝	-8.50761
問題	-8.50828
つて	-8.51083
26	-8.51383
五	-8.51492
それ	-8.52121
フランス	-8.52143
人間	-8.522
できる	-8.5233
当時	-8.52631
他	-8.52733
宮	-8.5279
室	-8.52873
H	-8.52996
27	-8.53056
セ	-8.5309
ビ	-8.53374
何	-8.53421
バー	-8.53517
ほか	-8.53664
的に	-8.5408
られた	-8.54234
ッ	-8.54503
ために	-8.5465
シュ	-8.54759
真	-8.5494
W	-8.55158
橋	-8.55228
とともに	-8.55314
谷	-8.55337
J	-8.5543
V	-8.55691
29	-8.55778
よう	-8.55975
ました	-8.56335
選手	-8.56663
今	-8.56975
ふ	-8.57122
四	-8.57141
だが	-8.57222
代表	-8.57489
と共に	-8.5774
教育	-8.57798
地方	-8.58235
成	-8.58256
学校	-8.58483
歌	-8.58527
事業	-8.5859
ば	-8.5898
いて	-8.59127
ドイツ	-8.5913
多くの	-8.59301
事件	-8.59427
台	-8.59561
アルバム	-8.59833
バス	-8.59852
プロ	-8.59861
t	-8.60078
空	-8.60339
々	-8.6041
身	-8.60485
に対する	-8.605
L	-8.6051
トン	-8.60645
八	-8.60824
安	-8.60894
ケ	-8.60908
大きな	-8.60972
▁これは	-8.61345
歳	-8.61588
地区	-8.61952
次	-8.61995
リーグ	-8.62148
カー	-8.62156
生活	-8.62481
そう	-8.62713
なかった	-8.62743
科	-8.62838
ゴ	-8.63139
じ	-8.63281
番	-8.63507
信	-8.63703
足	-8.63809
については	-8.63841
女性	-8.64081
夜	-8.64138
ー	-8.64206
文化	-8.64244
級	-8.64419
があった	-8.65235
アン	-8.65469
ヤ	-8.65499
有	-8.6573
都市	-8.66705
ラー	-8.66726
されていた	-8.66734
中国	-8.66765
グループ	-8.66771
発	-8.66813
会社	-8.66844
論	-8.66992
50	-8.6704
ご	-8.67079
吉	-8.67087
関係	-8.67269
と呼ばれる	-8.67394
時代	-8.67489
座	-8.67539
E	-8.67632
星	-8.67753
ボ	-8.67858
年間	-8.68013
通り	-8.68385
政	-8.68472
実	-8.6871
権	-8.68978
同年	-8.69021
しており	-8.69097
100	-8.69276
多	-8.69303
または	-8.69308
国際	-8.69424
こう	-8.69469
コン	-8.69755
巻	-8.69844
母	-8.70089
サン	-8.70243
役	-8.70411
のみ	-8.705
中に	-8.70543
賞	-8.71063
六	-8.71124
スト	-8.71132
ター	-8.7127
よく	-8.71355
父	-8.71414
y	-8.71503
もう	-8.72044
あり	-8.7213
総	-8.72138
社会	-8.72397
院	-8.72669
古	-8.72729
現在の	-8.72806
なり	-8.72902
松	-8.72975
といった	-8.72983
け	-8.73101
例	-8.73103
組	-8.73127
時に	-8.73204
彼は	-8.73507
シー	-8.73558
40	-8.73655
ロー	-8.7372
だけ	-8.73909
つた	-8.7401
店	-8.74031
愛	-8.74069
さらに	-8.7423
井	-8.74367
ん	-8.74417
31	-8.7448
半	-8.74654
丸	-8.74655
場合	-8.74773
システム	-8.74833
入	-8.74954
アル	-8.75116
シーズン	-8.75131
自分の	-8.75169
相	-8.75415
よりも	-8.75523
情報	-8.75568
他の	-8.75655
官	-8.75754
死	-8.76067
前に	-8.76349
なら	-8.76595
試合	-8.7682
に関する	-8.77056
せ	-8.77191
たい	-8.77306
円	-8.77411
なく	-8.77554
ラン	-8.77864
館	-8.77875
中央	-8.78173
一人	-8.78289
テレビ	-8.78496
を行う	-8.78613
戦争	-8.7862
ヒ	-8.78623
組織	-8.78644
私は	-8.78709
状態	-8.78936
清	-8.78981
七	-8.79262
制	-8.79463
もある	-8.79528
としては	-8.79593
兵	-8.79692
計画	-8.79701
敵	-8.79918
X	-8.8054
政府	-8.80601
技術	-8.80627
▁S	-8.80974
ことが	-8.81047
ことから	-8.81209
所属	-8.81234
ばかり	-8.81317
量	-8.81556
声	-8.81556
U	-8.81604
ポ	-8.81711
定	-8.81917
夫	-8.81918
尾	-8.82083
私	-8.82152
ではなく	-8.82342
江	-8.82343
れ	-8.82498
たち	-8.8255
品	-8.83018
km	-8.83109
類	-8.83309
春	-8.83494
その後	-8.83662
火	-8.83714
黒	-8.83776
n	-8.83776
ところ	-8.83866
人が	-8.83875
ぎ	-8.8397
っていた	-8.83971
施設	-8.84011
大会	-8.84097
イギリス	-8.84121
運動	-8.84415
史	-8.84509
なる	-8.84534
記録	-8.84693
側	-8.84862
武	-8.8489
君	-8.85018
特に	-8.85073
ソ	-8.85182
のために	-8.8555
対	-8.85608
葉	-8.85678
土	-8.85736
とした	-8.85907
一部	-8.86009
〜	-8.86193
ぬ	-8.86223
妻	-8.86351
日から	-8.86669
以上	-8.87101
攻撃	-8.87186
建設	-8.87443
ベ	-8.87459
ワ	-8.87643
久	-8.87838
彼の	-8.88074
を受け	-8.88089
▁同年	-8.88291
説	-8.88431
群	-8.88505
これ	-8.88693
合	-8.88776
させた	-8.888
表	-8.8882
ニー	-8.8893
使用	-8.89264
I	-8.89549
これは	-8.89695
林	-8.89812
とされる	-8.89853
治	-8.89862
リン	-8.89923
のように	-8.90031
字	-8.90081
ではない	-8.90269
ことで	-8.90353
んで	-8.90488
宗	-8.90536
スター	-8.90797
達	-8.90909
ことは	-8.91172
あるいは	-8.91246
させる	-8.91316
モデル	-8.91324
根	-8.91346
それぞれ	-8.91482
マー	-8.91499
ると	-8.91688
波	-8.91754
企業	-8.91766
エル	-8.92065
親	-8.9216
民	-8.92231
したが	-8.92267
しない	-8.92458
居	-8.92497
そして	-8.92544
食	-8.92575
▁ただし	-8.9261
～	-8.92614
左	-8.9263
党	-8.92824
千	-8.92852
構造	-8.93133
記	-8.93141
車両	-8.93153
のような	-8.93182
来	-8.93483
されて	-8.93509
岩	-8.93547
'	-8.93602
領	-8.9371
英	-8.93777
生産	-8.94019
校	-8.94108
横	-8.94158
師	-8.94167
機能	-8.94316
赤	-8.94326
路線	-8.94466
ギ	-8.94694
以降	-8.94967
戸	-8.95099
経済	-8.95229
Y	-8.95591
られ	-8.95715
悪	-8.95746
それを	-8.95825
調査	-8.95951
ピ	-8.96452
いい	-8.96513
販売	-8.96574
のうち	-8.96783
津	-8.96846
隊	-8.96949
クラブ	-8.97144
藩	-8.97207
業	-8.9735
条	-8.97463
雄	-8.97509
自	-8.97596
シングル	-8.97598
すること	-8.976
センター	-8.97625
ものである	-8.97683
を経て	-8.97747
右	-8.97814
森	-8.98177
っ	-8.98236
知	-8.98414
られる	-8.98435
年まで	-8.98587
感	-8.98705
つの	-8.98848
そ	-8.99141
制作	-8.99268
紙	-8.9941
之	-8.99486
太	-8.99535
の中で	-8.99561
米	-8.99583
再	-8.99584
病	-8.99796
艦	-8.99823
状	-8.99862
▁彼は	-9.00114
製造	-9.00152
同じ	-9.00266
を行った	-9.00294
ナー	-9.00359
管理	-9.00478
里	-9.00602
▁さらに	-9.00693
ど	-9.00747
ファ	-9.0076
連	-9.00783
草	-9.01123
らしい	-9.01188
全国	-9.01374
再び	-9.01395
個	-9.01398
へと	-9.01433
ます	-9.01455
角	-9.01514
大阪	-9.01635
沢	-9.01719
ベル	-9.02067
ペ	-9.02089
当	-9.02127
第一	-9.02537
2010	-9.02588
とき	-9.02632
ダー	-9.02737
e	-9.02811
株式会社	-9.02887
▁第	-9.02992
O	-9.03003
利	-9.03188
ヨーロッパ	-9.03393
職	-9.0356
アー	-9.03595
になって	-9.03619
設計	-9.03779
血	-9.03795
電	-9.04007
眼	-9.04057
女子	-9.04089
言	-9.04103
を見	-9.04179
非	-9.04183
メンバー	-9.04305
取り	-9.04455
士	-9.04475
高い	-9.0483
それは	-9.04893
器	-9.04978
節	-9.05281
新しい	-9.05386
イタリア	-9.05461
命	-9.05506
び	-9.05556
国家	-9.05583
年度	-9.05675
になり	-9.05811
2000	-9.05853
協会	-9.06016
諸	-9.06089
カル	-9.06249
最も	-9.06254
al	-9.06272
ホ	-9.0664
一般	-9.06711
になっている	-9.06806
だろう	-9.06815
ヴィ	-9.06821
h	-9.06928
聖	-9.07166
▁2010	-9.07221
ソン	-9.07245
教	-9.07287
出した	-9.07372
ヌ	-9.07728
バンド	-9.07914
青	-9.07921
60	-9.08084
を含む	-9.08248
発売	-9.08248
人物	-9.0836
i	-9.08374
守	-9.0839
キャラクター	-9.08502
2007	-9.08572
エンジン	-9.08709
徳	-9.08769
月には	-9.08817
a	-9.08877
様	-9.08956
自然	-9.08991
場所	-9.09019
ぶ	-9.0914
2008	-9.09195
製	-9.09301
雪	-9.09538
er	-9.09777
サービス	-9.09825
路	-9.09895
ゲ	-9.10297
良	-9.10379
2009	-9.1047
に対し	-9.10521
レン	-9.10712
を受けた	-9.10792
ファン	-9.11005
最初の	-9.11049
であったが	-9.1107
f	-9.1109
ロシア	-9.11153
高等学校	-9.11404
基	-9.11476
しか	-9.11549
おり	-9.11669
ジャ	-9.1179
にして	-9.11853
海軍	-9.11904
しい	-9.11917
日には	-9.11925
政治	-9.12194
教会	-9.12225
道路	-9.12245
ぞ	-9.12265
リング	-9.12394
シャ	-9.12403
2011	-9.128
薬	-9.12946
顔	-9.13005
小説	-9.13043
都	-9.13168
優勝	-9.13247
差	-9.13516
熱	-9.13572
夏	-9.13693
員	-9.13694
画	-9.13779
変	-9.13788
界	-9.13863
玉	-9.13908
堂	-9.13929
されており	-9.1398
どう	-9.13992
計	-9.14143
ゼ	-9.1417
アメリカ合衆国	-9.14225
れば	-9.14372
ろ	-9.14464
族	-9.14478
2006	-9.1448
ビル	-9.14495
様々な	-9.14524
▁B	-9.14532
楽	-9.14545
においては	-9.14686
集	-9.14826
製作	-9.14917
機関	-9.15103
団体	-9.15108
鉄	-9.15161
であるが	-9.15414
環境	-9.15557
ヘ	-9.15611
際	-9.15673
させ	-9.158
団	-9.15936
ぐ	-9.16091
湖	-9.16435
小学校	-9.16464
図	-9.16568
進	-9.16582
▁2011	-9.16706
文字	-9.16725
経	-9.17126
弟	-9.1716
戦闘	-9.17258
娘	-9.17392
はない	-9.17451
レイ	-9.1747
▁2009	-9.17631
大正	-9.17935
にあった	-9.18028
助	-9.18099
属	-9.18128
入り	-9.18185
▁2012	-9.18292
忠	-9.18297
▁日本	-9.18314
引	-9.18346
▁2008	-9.18405
表現	-9.18541
加	-9.18598
弾	-9.18654
省	-9.18751
世紀	-9.18793
人は	-9.18888
2012	-9.1906
自ら	-9.19156
夢	-9.19167
レース	-9.19234
板	-9.19351
港	-9.19365
生まれ	-9.19639
坂	-9.19676
カン	-9.19714
異	-9.19772
部分	-9.20083
まだ	-9.20162
以来	-9.2023
高校	-9.20464
ヴァ	-9.20553
伝	-9.20621
▁――	-9.20675
ホーム	-9.20709
雲	-9.20725
特別	-9.20795
制度	-9.20838
cm	-9.20879
其	-9.20927
80	-9.20968
球	-9.21163
変更	-9.21173
▁of	-9.21178
質	-9.21263
タイ	-9.21278
▁2014	-9.21394
▁2007	-9.21441
これを	-9.21636
兄	-9.21727
”	-9.2178
航空	-9.21858
利用	-9.21889
神社	-9.21941
ジョン	-9.21981
向け	-9.2207
オー	-9.22201
▁2013	-9.22216
客	-9.223
委員会	-9.22357
独立	-9.2237
広	-9.22476
チャ	-9.22505
舞台	-9.22662
ハイ	-9.2271
自由	-9.22711
o	-9.22816
反	-9.22869
中心	-9.23002
蔵	-9.23214
結果	-9.23229
出場	-9.23301
自動車	-9.23329
酒	-9.23363
文学	-9.23415
銀行	-9.23461
部隊	-9.23472
絵	-9.23502
章	-9.23588
スポーツ	-9.23608
▁2015	-9.23656
カード	-9.23658
十	-9.23664
リア	-9.23732
経営	-9.23861
物語	-9.23874
仕事	-9.23949
ガー	-9.24101
&	-9.24417
子供	-9.2447
為	-9.24511
以下	-9.24516
調	-9.24578
中学校	-9.24588
評価	-9.24698
デザイン	-9.24762
骨	-9.24773
はこの	-9.24858
太郎	-9.24873
初めて	-9.24952
▁2017	-9.24969
当時の	-9.24978
年代	-9.25011
総合	-9.25022
▁2016	-9.25026
意	-9.25101
九	-9.25129
永	-9.25478
裏	-9.25496
秋	-9.25508
デビュー	-9.25792
誌	-9.25903
を務めた	-9.25936
といふ	-9.26073
ロン	-9.26186
エン	-9.26332
雨	-9.26343
作戦	-9.2637
産	-9.26472
できない	-9.2651
企画	-9.26567
主義	-9.26696
2014	-9.26705
形式	-9.26796
||	-9.26879
取	-9.26917
付	-9.2698
何か	-9.26987
層	-9.27015
京都	-9.27044
街	-9.27122
開	-9.27225
それが	-9.27376
b	-9.27582
片	-9.27616
張	-9.27704
思い	-9.27799
立ち	-9.27888
タン	-9.27916
2013	-9.27981
FC	-9.28031
と同じ	-9.28078
素	-9.28138
上で	-9.28172
パン	-9.28296
樹	-9.28316
日まで	-9.28333
歴史	-9.28357
かい	-9.28418
岡	-9.28434
ガン	-9.28482
ビー	-9.28536
あった	-9.28586
パー	-9.28697
解	-9.28775
一つ	-9.28778
作家	-9.28782
ランド	-9.28832
公園	-9.28845
2005	-9.28916
藤	-9.29014
少年	-9.29084
かった	-9.29149
宇宙	-9.29166
毛	-9.29238
段	-9.29375
陸軍	-9.29502
交通	-9.29557
縁	-9.29624
Z	-9.29761
かつて	-9.29831
在	-9.29909
南部	-9.29941
インド	-9.29974
ブル	-9.30279
最大	-9.30418
試験	-9.30459
副	-9.30532
mm	-9.30582
ジェ	-9.3062
強	-9.30621
教授	-9.30641
病院	-9.30663
産業	-9.30856
国内	-9.30869
条件	-9.30893
ラジオ	-9.30909
末	-9.3094
はその	-9.30982
勝利	-9.30987
p	-9.31053
せん	-9.31113
志	-9.31133
味	-9.31202
秀	-9.31234
国民	-9.31245
名は	-9.31317
宿	-9.31347
▁C	-9.31498
とし	-9.31507
京	-9.3152
en	-9.31562
乱	-9.31641
訳	-9.31925
学生	-9.31977
河	-9.32029
最高	-9.32074
奥	-9.32407
▁2006	-9.32411
スペイン	-9.32531
源	-9.32554
陽	-9.32596
アニメ	-9.32634
個人	-9.32689
2015	-9.32695
バン	-9.32717
大統領	-9.32766
近	-9.32827
首	-9.32839
ルー	-9.32862
帯	-9.32928
を行い	-9.33033
構成	-9.33099
豊	-9.33306
対象	-9.33399
からは	-9.33417
ねえ	-9.33511
70	-9.3356
モン	-9.33672
百	-9.33813
35	-9.33844
関	-9.33869
方法	-9.33875
走	-9.33914
フィ	-9.33929
天皇	-9.33947
などで	-9.33998
保	-9.34005
階	-9.34057
であろう	-9.34096
ること	-9.34099
開催	-9.34152
能力	-9.34179
かな	-9.34219
イベント	-9.34249
未	-9.34264
翌	-9.34271
▁そのため	-9.34337
少し	-9.34355
満	-9.34457
者は	-9.34491
人口	-9.34506
工場	-9.34584
シン	-9.34631
だから	-9.34639
列車	-9.3491
輪	-9.34996
▁私は	-9.35081
編成	-9.35096
男性	-9.35221
竹	-9.35239
スーパー	-9.35347
マル	-9.35418
ことがある	-9.35473
込み	-9.35498
を中心に	-9.35571
公開	-9.35661
によると	-9.3568
ット	-9.35715
などが	-9.35786
会議	-9.35816
状況	-9.3582
ほとんど	-9.35885
理	-9.35948
サー	-9.35976
鳥	-9.3605
ライブ	-9.36116
設定	-9.36162
▁A	-9.36174
詩	-9.36219
演奏	-9.3629
契約	-9.36343
パリ	-9.3636
打	-9.364
コー	-9.36635
によれば	-9.36702
>	-9.36716
主に	-9.36754
だと	-9.36827
起	-9.36836
運営	-9.36855
羽	-9.36898
祭	-9.3691
転	-9.37416
CD	-9.37455
越	-9.37457
ハー	-9.37547
に位置する	-9.37604
現在	-9.37712
タイトル	-9.37845
余	-9.37873
最後の	-9.37889
としている	-9.37892
キー	-9.37897
開始	-9.37953
英語	-9.38135
経験	-9.38175
人気	-9.38243
韓国	-9.38325
席	-9.38345
月から	-9.38468
警察	-9.38521
香	-9.38531
じゃ	-9.38567
北海道	-9.38616
ことに	-9.3866
値	-9.3871
常	-9.38782
若	-9.38841
▁F	-9.38936
雑誌	-9.391
落	-9.39202
c	-9.39224
犬	-9.39288
江戸	-9.39369
持	-9.39392
出し	-9.39394
k	-9.39419
芸術	-9.39601
工業	-9.39609
ライン	-9.39645
ック	-9.39746
勢	-9.39832
魚	-9.39867
新聞	-9.39868
がない	-9.39938
製品	-9.39959
戦で	-9.39992
運用	-9.40022
地球	-9.40148
90	-9.40217
行動	-9.40402
2016	-9.40408
崎	-9.40411
好	-9.40429
像	-9.40456
難	-9.40505
政策	-9.40554
クラス	-9.40698
装置	-9.40888
ハン	-9.40897
運転	-9.40952
内容	-9.40968
仏	-9.40988
科学	-9.41013
an	-9.41093
司	-9.41133
言語	-9.41148
茶	-9.41186
現代	-9.41286
支援	-9.4142
設置	-9.41618
45	-9.41648
st	-9.41706
意味	-9.41719
られている	-9.41729
低	-9.4191
者が	-9.4194
便	-9.42006
龍	-9.42016
引き	-9.42185
ドラマ	-9.42216
ing	-9.42228
増	-9.4235
ネット	-9.42369
▁2018	-9.42442
帝	-9.42572
メートル	-9.42759
切	-9.42778
が多い	-9.4283
z	-9.42843
土地	-9.43054
2004	-9.43065
政権	-9.43108
500	-9.43317
もので	-9.43387
だったが	-9.43395
方面	-9.43401
砲	-9.43421
強い	-9.43438
ていない	-9.43454
動物	-9.4348
出す	-9.43503
枚	-9.43591
関連	-9.43651
登録	-9.43751
バル	-9.43808
陣	-9.43863
スタ	-9.43912
又	-9.43912
200	-9.44063
精神	-9.44123
造	-9.44165
▁一方	-9.44172
デン	-9.44197
湯	-9.44381
老	-9.44414
部屋	-9.44453
などを	-9.44578
データ	-9.44581
発表	-9.44632
▁M	-9.44723
自分	-9.44725
上に	-9.44814
率	-9.45023
通信	-9.45101
管	-9.45189
言葉	-9.45234
額	-9.45295
指	-9.45431
▁2005	-9.4545
幸	-9.45485
楽曲	-9.45554
2017	-9.4561
時には	-9.4565
私の	-9.45689
せず	-9.45703
家族	-9.45921
場合は	-9.45938
極	-9.46029
d	-9.46126
秒	-9.46153
JR	-9.46206
向	-9.46268
▁P	-9.46272
冬	-9.46419
ほ	-9.46521
にかけて	-9.46578
持ち	-9.46644
跡	-9.46651
つき	-9.46784
区間	-9.46945
端	-9.46957
アイ	-9.46972
ことができる	-9.47007
決定	-9.47064
うち	-9.4712
超	-9.47196
もあり	-9.4732
たが	-9.4747
第二	-9.47514
流れ	-9.4755
服	-9.47658
漢	-9.47713
効果	-9.47801
残	-9.47871
らない	-9.47962
彼	-9.48166
たり	-9.48207
]	-9.48225
担当	-9.48325
もない	-9.48386
写真	-9.48389
参加	-9.48433
仁	-9.48484
協力	-9.48621
北部	-9.48747
“	-9.48812
植物	-9.48841
頃	-9.48874
存在	-9.48881
アジア	-9.48905
矢	-9.48946
に伴い	-9.48958
建築	-9.48986
国道	-9.48989
てきた	-9.49045
▁the	-9.49053
フェ	-9.49069
目的	-9.49086
かん	-9.49096
が行われた	-9.4911
の中に	-9.4911
輸送	-9.49113
ようになった	-9.49126
塩	-9.4916
r	-9.49166
ダム	-9.49212
小さな	-9.49267
レー	-9.49292
ライ	-9.49334
善	-9.49742
腹	-9.49932
さま	-9.49943
レス	-9.49972
窓	-9.50014
整備	-9.50017
彦	-9.5002
放	-9.50036
フリー	-9.50078
でもある	-9.50096
王国	-9.50191
たる	-9.50226
をもって	-9.50268
報告	-9.50318
かつ	-9.50382
ジュ	-9.50385
にあたる	-9.50386
運行	-9.50392
▁それは	-9.50393
in	-9.50492
寝	-9.50538
on	-9.50602
or	-9.50611
市民	-9.50616
案	-9.50788
遠	-9.508
系統	-9.50828
▁お	-9.50895
程	-9.50916
ロック	-9.51027
こそ	-9.51079
ヨ	-9.51158
ローマ	-9.51172
ロンドン	-9.51191
ものは	-9.51255
情	-9.51402
肉	-9.51437
部門	-9.51492
旅	-9.51516
敗	-9.51538
▁だが	-9.51545
フル	-9.51574
洋	-9.51607
俳優	-9.51699
の一部	-9.51728
最終	-9.51803
非常に	-9.51818
隻	-9.5182
枠	-9.51895
+	-9.52016
浜	-9.5202
細胞	-9.52029
周	-9.52068
u	-9.52106
銀	-9.52116
出演	-9.52259
方式	-9.52299
48	-9.52368
行き	-9.52455
壁	-9.52508
重要な	-9.5256
l	-9.52577
筋	-9.52596
すぐ	-9.52618
廃止	-9.52672
考え	-9.52716
子は	-9.529
実験	-9.52913
郷	-9.52924
ていたが	-9.5301
程度	-9.53153
すべて	-9.53169
ニューヨーク	-9.53271
伊	-9.53284
工事	-9.53287
動	-9.53318
列	-9.53343
早	-9.53358
出版	-9.534
割	-9.53419
/\	-9.53438
まず	-9.5348
長い	-9.53648
こともある	-9.53736
研究所	-9.53783
瀬	-9.53916
料理	-9.53946
なか	-9.54082
兼	-9.54101
ニュー	-9.54134
共同	-9.54152
38	-9.54158
以外の	-9.54221
設立	-9.54299
選挙	-9.54303
枝	-9.5435
浦	-9.54381
していたが	-9.54405
ただ	-9.54412
将軍	-9.54445
ジー	-9.54478
保護	-9.54479
チェ	-9.54484
能	-9.54498
が多く	-9.54573
ほう	-9.54579
あの	-9.54657
キン	-9.54664
事を	-9.54767
漫画	-9.54789
種類	-9.54847
th	-9.5488
オリンピック	-9.54941
予定	-9.54956
多く	-9.54959
▁H	-9.54967
終了	-9.55002
ドル	-9.55005
影	-9.55048
比	-9.55082
映像	-9.55218
ウィ	-9.55232
トリ	-9.55235
を受けて	-9.55275
指導	-9.55316
幅	-9.55331
急	-9.55334
渡	-9.55344
表記	-9.55439
福	-9.55545
展開	-9.55573
ゆ	-9.55583
池	-9.55623
議会	-9.55644
遊	-9.55693
きた	-9.55722
するため	-9.55748
貴	-9.55751
自身の	-9.55865
興	-9.55989
にとって	-9.55991
NHK	-9.55998
艦隊	-9.56032
作曲	-9.5607
学者	-9.56078
変化	-9.56096
断	-9.56121
任	-9.56195
撮影	-9.56269
2003	-9.56349
交	-9.56352
最	-9.56366
べ	-9.56377
あたり	-9.56384
事故	-9.56401
すれば	-9.56434
書き	-9.56528
1990	-9.56548
結婚	-9.5668
32	-9.56695
指定	-9.567
華	-9.56875
ed	-9.57057
紀	-9.57211
費	-9.57228
選	-9.5723
編	-9.57269
辺	-9.57421
批判	-9.5748
ちゃん	-9.57524
▁D	-9.57738
2018	-9.57763
を持ち	-9.57835
▁それ	-9.5785
になると	-9.58003
孫	-9.5802
深	-9.58031
来た	-9.58155
軽	-9.58266
公演	-9.58266
飛行	-9.58304
佐	-9.5834
付け	-9.58345
統一	-9.58365
台湾	-9.58399
友	-9.58457
得	-9.58469
ーン	-9.58501
とされている	-9.58569
規定	-9.58754
内に	-9.58784
帝国	-9.58883
店舗	-9.58929
使	-9.58939
us	-9.58983
庭	-9.59017
トップ	-9.59061
そのまま	-9.59123
されていない	-9.59274
順	-9.59354
ヴェ	-9.59418
ほぼ	-9.59422
ガス	-9.59428
殿	-9.59597
せい	-9.59677
九州	-9.59683
▁同	-9.59734
▁そこで	-9.59738
理論	-9.59825
園	-9.59923
具	-9.60007
宝	-9.60043
条約	-9.60203
先生	-9.60204
全て	-9.60415
平均	-9.60486
乗	-9.60501
でしょう	-9.60542
をして	-9.60584
富	-9.60596
弁	-9.60676
▁G	-9.6072
33	-9.60796
拡大	-9.60938
建	-9.61002
霊	-9.61026
大型	-9.61037
現在は	-9.6106
日本人	-9.6111
視	-9.6116
げ	-9.61275
技	-9.61276
空間	-9.61351
36	-9.61446
頼	-9.61634
泉	-9.61794
作業	-9.61873
なし	-9.61931
▁2004	-9.62074
よい	-9.6213
ブラ	-9.6216
数は	-9.6222
倍	-9.62255
テン	-9.62276
ホール	-9.62321
要素	-9.62329
万円	-9.62469
専門	-9.62472
キャ	-9.62496
工	-9.62497
ar	-9.62519
倉	-9.62574
記事	-9.62599
トラ	-9.62667
市場	-9.62828
なお	-9.62905
我	-9.62971
れる	-9.62988
直接	-9.63011
g	-9.63063
発行	-9.63134
喜	-9.6315
初代	-9.63202
となって	-9.63264
をする	-9.63269
▁これ	-9.63274
幕	-9.63282
オリジナル	-9.63288
行為	-9.63291
IC	-9.633
期間	-9.6348
電気	-9.63487
ダン	-9.63502
元年	-9.6353
革命	-9.63609
▁W	-9.63643
切り	-9.63776
ホテル	-9.63779
令	-9.638
間に	-9.63918
したり	-9.63927
2002	-9.63947
印	-9.63986
タイプ	-9.64015
劇場	-9.64036
兄弟	-9.64204
可	-9.64255
するために	-9.64315
▁R	-9.6432
傷	-9.64443
ザー	-9.64511
参	-9.64523
対応	-9.64524
格	-9.64563
柳	-9.64625
床	-9.64627
トゥ	-9.64728
初期	-9.6486
あと	-9.64946
軍事	-9.64948
ステージ	-9.64986
民族	-9.65009
合併	-9.65081
逆	-9.65101
時代の	-9.65153
あまり	-9.65248
過	-9.65278
後は	-9.65336
サイ	-9.65351
営業	-9.65441
名古屋	-9.65453
クス	-9.65568
観	-9.65748
定義	-9.65772
卒業	-9.65777
此	-9.65871
34	-9.65887
記念	-9.65937
博士	-9.65961
処	-9.65993
el	-9.66147
思想	-9.66158
の上に	-9.66195
動き	-9.66274
メイン	-9.66345
指揮	-9.66353
集団	-9.66386
を取り	-9.66391
搭載	-9.66401
▁K	-9.66416
それに	-9.66434
提供	-9.66468
ノー	-9.66491
積	-9.66568
いない	-9.66666
建物	-9.66726
自身	-9.66801
スタジオ	-9.66806
カナダ	-9.66843
しく	-9.66905
単	-9.66935
横浜	-9.66975
牛	-9.66991
ツアー	-9.67033
反応	-9.67099
同盟	-9.67143
介	-9.67159
弘	-9.67177
反対	-9.67244
付き	-9.67256
37	-9.67294
導入	-9.67296
底	-9.6731
散	-9.67343
万人	-9.67409
新たな	-9.6747
→	-9.67485
移動	-9.67526
見た	-9.67528
▁T	-9.67558
術	-9.67592
許	-9.67634
隆	-9.67638
300	-9.67643
2001	-9.6765
行政	-9.67664
の一つ	-9.67698
時期	-9.67711
としても	-9.67738
ものが	-9.67783
盤	-9.67784
くる	-9.67811
ポイント	-9.67867
事実	-9.6791
内で	-9.67951
▁17	-9.67963
野球	-9.68012
業務	-9.68037
1980	-9.68089
そんな	-9.68106
勢力	-9.68119
選手権	-9.68128
てゐる	-9.68143
女優	-9.68238
罪	-9.6836
海外	-9.68396
同時に	-9.68481
をした	-9.68495
バック	-9.68557
商品	-9.68578
とう	-9.68603
男子	-9.68624
綱	-9.68647
たちは	-9.68664
is	-9.68757
なん	-9.68777
府	-9.68779
市立	-9.68875
共和国	-9.6891
いった	-9.69046
若い	-9.69127
なかつた	-9.69153
湾	-9.69225
税	-9.69249
▁※	-9.69251
していない	-9.69315
オブ	-9.69359
これらの	-9.69384
要	-9.69403
一度	-9.69422
▁特に	-9.69568
折	-9.6972
ならば	-9.69793
が存在する	-9.69875
The	-9.69885
発生	-9.69969
et	-9.69974
もなく	-9.69975
ヴ	-9.69997
こんな	-9.70013
電子	-9.70035
商	-9.70112
メディア	-9.70192
ch	-9.70199
住民	-9.70285
x	-9.70339
一方	-9.70347
皆	-9.70347
Q	-9.7039
穴	-9.70602
盛	-9.70633
kg	-9.70712
トー	-9.70719
形態	-9.70739
核	-9.70745
仲	-9.70764
栄	-9.70771
制限	-9.70831
大臣	-9.70865
れた	-9.70871
であつた	-9.70963
したもの	-9.70964
行く	-9.70964
周辺	-9.71054
打ち	-9.71063
マイ	-9.71203
東京都	-9.71278
まい	-9.71293
ッツ	-9.71336
機械	-9.71336
専用	-9.71383
域	-9.71418
しながら	-9.71684
宗教	-9.7171
生徒	-9.7171
命令	-9.71715
ざ	-9.71736
塔	-9.71745
公式	-9.71775
飯	-9.71875
ックス	-9.72011
▁これらの	-9.72032
主人公	-9.72063
ニュース	-9.72063
w	-9.72083
完成	-9.7209
代目	-9.72126
ダイ	-9.72129
空港	-9.72145
まま	-9.72187
全く	-9.72207
劇	-9.72239
中で	-9.72275
メーカー	-9.72282
とか	-9.724
ロス	-9.72442
やうな	-9.72505
セル	-9.72564
▁現在	-9.72578
処理	-9.72685
オランダ	-9.72745
いや	-9.72758
黄	-9.72775
いわゆる	-9.72776
筆	-9.72791
年より	-9.72833
コース	-9.7289
体制	-9.72902
込んだ	-9.73035
殺	-9.73088
込んで	-9.73094
スキー	-9.73123
だい	-9.73144
防	-9.7316
刀	-9.73273
基本	-9.73291
自己	-9.73311
と言う	-9.73381
精	-9.73381
必要	-9.73391
二人	-9.73391
▁2000	-9.73438
説明	-9.73468
苦	-9.73502
レコード	-9.73542
ur	-9.73573
顔を	-9.73681
表示	-9.7377
つけ	-9.73898
分類	-9.73914
タイム	-9.73999
ユ	-9.73999
共	-9.74019
連載	-9.74122
リスト	-9.74168
次郎	-9.74203
そこ	-9.74204
減	-9.74291
だけで	-9.74311
ライト	-9.74318
営	-9.744
普通	-9.74463
背	-9.74466
するなど	-9.74496
さう	-9.74564
以後	-9.74595
思	-9.74615
さえ	-9.74619
理由	-9.74662
油	-9.74678
一番	-9.74726
サイト	-9.74799
留	-9.7489
意識	-9.74943
緑	-9.75022
少女	-9.75059
it	-9.75098
温泉	-9.75189
初の	-9.75215
恋	-9.75219
実施	-9.75239
行った	-9.75268
網	-9.75397
形で	-9.75448
プロジェクト	-9.75449
以下の	-9.75535
に近い	-9.7557
セン	-9.75621
られて	-9.75625
以上の	-9.75651
甲	-9.75695
仕様	-9.75696
農	-9.75707
オーストラリア	-9.75734
発展	-9.75862
相手	-9.75871
出して	-9.75913
阿	-9.75947
人々	-9.76023
異なる	-9.7603
んです	-9.76143
re	-9.76226
防衛	-9.76255
クラ	-9.76322
距離	-9.76335
ドン	-9.76395
カップ	-9.76401
ウス	-9.76424
オン	-9.76449
と呼ぶ	-9.76454
1970	-9.765
エネルギー	-9.76552
剣	-9.76579
かく	-9.76598
特	-9.76629
を行っている	-9.76629
ぼ	-9.76667
連続	-9.76714
クロ	-9.76862
庁	-9.76875
速	-9.76931
しなかった	-9.76938
機構	-9.7695
00	-9.76965
布	-9.7697
記述	-9.76993
DVD	-9.77075
統合	-9.77095
沼	-9.771
ブランド	-9.77139
支配	-9.77143
新たに	-9.77185
込む	-9.77202
ディー	-9.77243
基準	-9.77268
ことになる	-9.7731
とその	-9.77344
感じ	-9.7738
ものを	-9.77383
39	-9.77427
務	-9.7744
図書館	-9.77536
le	-9.7757
位置	-9.7771
景	-9.77742
項	-9.77791
際に	-9.77823
名を	-9.77838
同じく	-9.77854
結	-9.7789
軸	-9.77914
ことも	-9.77971
仕	-9.77983
観測	-9.7799
速度	-9.7822
づ	-9.78246
ニア	-9.78256
逃げ	-9.78301
▁2003	-9.78379
早く	-9.78403
勝ち	-9.78479
プレイ	-9.78495
番号	-9.78539
アップ	-9.78591
にあり	-9.7862
学園	-9.7866
慶	-9.78858
ジョ	-9.78869
ショー	-9.78995
わけ	-9.78996
会長	-9.79127
姫	-9.79133
となっていた	-9.79178
受け	-9.79209
セット	-9.7922
得点	-9.79302
広く	-9.7938
妹	-9.79473
バイ	-9.7948
細	-9.79596
更に	-9.79696
交換	-9.79727
br	-9.79731
登場	-9.79788
社長	-9.79817
ベスト	-9.79832
の間に	-9.7987
特徴	-9.79948
めて	-9.79976
鬼	-9.79999
竜	-9.80021
もしくは	-9.80225
するが	-9.8023
脚	-9.80249
ソ連	-9.80286
青年	-9.80401
桜	-9.80433
歯	-9.80452
法律	-9.80462
李	-9.80477
競技	-9.80493
柱	-9.80531
売	-9.80576
ペン	-9.80595
児	-9.80641
成功	-9.80642
実現	-9.80744
内閣	-9.80845
純	-9.80863
軌道	-9.80867
しん	-9.80878
障害	-9.80882
することで	-9.80951
絶	-9.80985
歌手	-9.81033
首相	-9.81074
を示す	-9.81078
ビデオ	-9.81081
CM	-9.81092
静	-9.81181
イングランド	-9.81275
を務める	-9.8129
やま	-9.8136
1999	-9.81398
しょう	-9.81419
けん	-9.81438
酸	-9.81453
近く	-9.81463
報	-9.81467
振り	-9.81557
西部	-9.81565
付近	-9.81575
弱	-9.81623
郎	-9.81733
ワン	-9.8187
配	-9.81925
衣	-9.82007
デル	-9.82013
したため	-9.82047
関東	-9.82049
メン	-9.82081
シーン	-9.82097
米国	-9.8212
ブリ	-9.82122
人に	-9.82177
シティ	-9.82221
を通じて	-9.82247
などに	-9.82276
姿	-9.82302
離	-9.82334
墓	-9.82358
腕	-9.82361
荒	-9.82364
名前	-9.82394
▁このため	-9.82474
ミー	-9.82483
ポーランド	-9.8252
可能性	-9.82586
装	-9.82613
分野	-9.82673
深い	-9.82753
キング	-9.8278
44	-9.82825
を受ける	-9.82826
候補	-9.82973
康	-9.82988
開業	-9.83093
まる	-9.8314
句	-9.83198
を見て	-9.83262
略	-9.83272
報道	-9.8333
トル	-9.83359
コーナー	-9.83438
箱	-9.83486
温	-9.83498
剤	-9.83519
皇帝	-9.83736
at	-9.83772
リリース	-9.8378
TV	-9.83784
破	-9.83825
地下	-9.83893
階級	-9.83958
ろう	-9.84047
議員	-9.8407
露	-9.84085
歩	-9.84146
修	-9.84162
▁例えば	-9.84188
カラ	-9.84194
投手	-9.84199
治療	-9.84241
時は	-9.84254
採用	-9.84299
サッカー	-9.8435
ごとに	-9.84404
ユニット	-9.84462
三郎	-9.84484
マーク	-9.84488
延長	-9.84523
境	-9.84556
農業	-9.8457
方向	-9.84591
なくなった	-9.84683
孝	-9.8471
かわ	-9.84755
事務所	-9.84807
ジャン	-9.84865
智	-9.84874
息子	-9.85074
投	-9.85104
大きく	-9.85133
陸	-9.85201
商業	-9.85203
議	-9.85218
茂	-9.85236
コル	-9.85362
を結ぶ	-9.85388
える	-9.85449
みんな	-9.85468
ゲン	-9.85479
標準	-9.85498
会員	-9.8554
前後	-9.85634
行われた	-9.857
プログラム	-9.85717
唐	-9.85738
▁L	-9.85747
料	-9.85787
限定	-9.85808
胸	-9.85876
念	-9.85886
訓練	-9.85913
47	-9.85926
名称	-9.85951
ドゥ	-9.85993
予選	-9.86016
射	-9.86025
密	-9.86057
内部	-9.8606
委員	-9.86063
僕	-9.86097
テル	-9.86169
資料	-9.86175
改造	-9.8624
やがて	-9.86283
ティー	-9.86317
俊	-9.86351
白い	-9.86381
失	-9.86413
虫	-9.86444
配置	-9.86515
太陽	-9.86516
追	-9.86575
を指す	-9.86583
55	-9.86606
しばしば	-9.86633
してきた	-9.86662
薄	-9.86712
収録	-9.86761
延	-9.86772
症	-9.86777
鼻	-9.86843
脳	-9.8686
領域	-9.86986
べき	-9.86991
までは	-9.86992
姉	-9.87094
奴	-9.87128
既に	-9.8713
落ち	-9.87144
接	-9.87243
ミン	-9.87244
影響	-9.87264
共に	-9.87281
国立	-9.87334
億	-9.87369
継続	-9.87409
ものであった	-9.87462
物質	-9.87468
被	-9.87505
機体	-9.87552
アス	-9.87563
冷	-9.87615
広島	-9.87627
スタイル	-9.87835
銃	-9.87854
やはり	-9.87876
地震	-9.87923
46	-9.87923
連邦	-9.87991
あれ	-9.88089
▁km	-9.88107
博物館	-9.88174
毒	-9.88195
礼	-9.88197
也	-9.88202
配信	-9.88272
ころ	-9.88296
連絡	-9.8831
送	-9.88377
を参照	-9.88406
化学	-9.88411
堀	-9.88457
氷	-9.88461
ぜ	-9.88504
と思う	-9.88537
全体	-9.88557
分離	-9.88599
魔	-9.88615
皮	-9.8865
▁E	-9.88662
規模	-9.88679
注意	-9.88695
地上	-9.88736
に入り	-9.88743
らず	-9.88758
時代に	-9.88822
ひと	-9.88826
いう	-9.88838
従	-9.88846
姓	-9.88869
連盟	-9.88873
で行われた	-9.88889
気が	-9.88901
お前	-9.89063
毎年	-9.89064
終	-9.89064
まり	-9.89065
上げ	-9.8909
これが	-9.89111
生物	-9.89114
糸	-9.89124
旗	-9.89153
言い	-9.89179
丁目	-9.89188
住	-9.892
労働	-9.89243
42	-9.8926
と考えられている	-9.89345
▁大	-9.89362
ません	-9.89376
貞	-9.89384
丘	-9.89454
医療	-9.89468
引退	-9.89508
受	-9.89522
帰	-9.8953
フォン	-9.8953
ジャー	-9.89555
ジン	-9.89713
可能	-9.89773
▁2002	-9.89791
と云う	-9.89866
ボー	-9.89883
1998	-9.89883
古い	-9.89909
友人	-9.89993
ともに	-9.90033
夫人	-9.90052
においても	-9.90109
プラ	-9.90126
せる	-9.90204
獲得	-9.90224
もあった	-9.90324
肩	-9.90345
美術	-9.90353
なければ	-9.90422
主演	-9.9044
少	-9.9048
っと	-9.90487
息	-9.90489
はず	-9.90862
休	-9.90889
モー	-9.90924
死去	-9.90926
ことが多い	-9.90929
as	-9.9095
現象	-9.90956
合い	-9.90976
イー	-9.90997
たか	-9.91037
給	-9.91071
おお	-9.91093
いく	-9.91146
違い	-9.91162
関西	-9.91165
圏	-9.91182
焼	-9.91187
がいる	-9.91203
手を	-9.91267
称	-9.91268
同社	-9.91318
要求	-9.91325
神戸	-9.91345
杯	-9.9138
電話	-9.9139
共通	-9.91462
来る	-9.91479
つか	-9.91545
市内	-9.91584
アンド	-9.91588
当初	-9.91596
東部	-9.91641
兵衛	-9.91658
いま	-9.91698
ごと	-9.91737
基地	-9.91781
小さい	-9.91876
登	-9.91881
髪	-9.91882
冠	-9.91892
ケン	-9.92015
策	-9.92021
制御	-9.92032
歳で	-9.92079
に属する	-9.9209
ラム	-9.92123
観光	-9.92167
らしく	-9.92169
主張	-9.92197
人を	-9.92249
本部	-9.92287
ところで	-9.92329
複数の	-9.92347
なければならない	-9.92352
地元	-9.92364
入れ	-9.92443
健	-9.9247
かけ	-9.92505
ブルー	-9.92582
すべき	-9.92602
ボン	-9.9262
レベル	-9.92697
暗	-9.92706
仲間	-9.92761
昌	-9.92793
氣	-9.92795
望	-9.92885
月まで	-9.92913
すでに	-9.93009
イメージ	-9.93033
▁2001	-9.93069
大陸	-9.93086
連合	-9.93126
てしまう	-9.93187
今日	-9.93204
▁現在は	-9.93214
振	-9.93216
ミュージック	-9.93249
させて	-9.93265
祖	-9.93405
準備	-9.93428
応	-9.93516
臣	-9.93536
400	-9.93542
岸	-9.93555
il	-9.93634
いくつかの	-9.93646
翌年	-9.93675
当初は	-9.93689
紅	-9.9369
選択	-9.93709
倒	-9.93714
ゾ	-9.9374
ストーリー	-9.93849
装備	-9.93863
杉	-9.9396
空気	-9.93978
諸島	-9.94016
を意味する	-9.94047
彼女	-9.94063
学部	-9.94085
日本語	-9.94119
房	-9.94156
が行われ	-9.94279
資格	-9.94285
コンピュータ	-9.94289
を得た	-9.94339
成績	-9.94359
シェ	-9.9436
貴族	-9.94377
古代	-9.94432
トロ	-9.94526
浮	-9.94535
リオ	-9.94597
すぐに	-9.94627
1997	-9.94739
典	-9.94791
刻	-9.94792
シャー	-9.94853
単位	-9.94877
▁それから	-9.94892
読み	-9.94892
II	-9.94918
ずつ	-9.94933
退	-9.94988
医	-9.95115
手紙	-9.95135
▁一	-9.95159
v	-9.95162
哲学	-9.95181
発見	-9.95182
むら	-9.95209
柄	-9.95286
雑	-9.95287
トラック	-9.95345
ール	-9.95402
の戦い	-9.95431
題	-9.95446
平和	-9.95491
てしまった	-9.95533
▁翌	-9.95534
43	-9.95617
アフリカ	-9.95683
オーストリア	-9.95754
電車	-9.95776
車体	-9.9588
長さ	-9.95905
以降は	-9.9593
1996	-9.95952
陰	-9.95978
es	-9.95983
博	-9.96035
改革	-9.96153
梅	-9.96154
脱	-9.96224
41	-9.96243
課	-9.9627
いずれも	-9.96296
与	-9.96322
優	-9.96331
生き	-9.96406
めた	-9.96407
ルート	-9.96434
デー	-9.96496
あい	-9.96539
ad	-9.96568
賀	-9.96577
機器	-9.9661
通常	-9.9664
ゝ	-9.96646
ワールド	-9.96673
戦い	-9.96674
鶴	-9.9672
美しい	-9.96737
しゃ	-9.96799
ジョージ	-9.96821
返	-9.96824
方が	-9.96868
カラー	-9.97024
だけでなく	-9.97063
1995	-9.9707
1000	-9.97196
神経	-9.97248
扱い	-9.97258
と同時に	-9.97272
任務	-9.97282
れて	-9.97289
オル	-9.97318
しき	-9.97334
つつ	-9.97347
朝鮮	-9.9736
しま	-9.97365
te	-9.97412
短	-9.97466
それから	-9.97508
ピアノ	-9.97554
電力	-9.97558
実際に	-9.97614
通算	-9.97622
うちに	-9.97662
1960	-9.97666
インターネット	-9.97671
の娘	-9.97715
成長	-9.97722
回転	-9.97738
つく	-9.97744
停止	-9.97748
廃	-9.97785
責任	-9.97794
カール	-9.97796
評	-9.97857
戦後	-9.97914
める	-9.97956
畑	-9.97966
かなり	-9.98036
PC	-9.98119
どんな	-9.98181
操作	-9.98239
▁18	-9.9826
設備	-9.98264
進出	-9.98337
一郎	-9.98381
由	-9.98395
資金	-9.98428
耳	-9.98431
週	-9.98438
65	-9.98448
飛び	-9.98506
至	-9.98526
プレイヤー	-9.98555
コード	-9.98763
欧州	-9.98764
敬	-9.98771
ても	-9.98799
意見	-9.98866
することができる	-9.98904
彼女は	-9.98913
に入る	-9.99021
フォード	-9.99036
つてゐる	-9.99038
父親	-9.99057
途中	-9.99137
ここ	-9.99138
パーク	-9.99169
砂	-9.99288
解決	-9.9931
グリ	-9.99319
復帰	-9.99342
ことになった	-9.9954
深く	-9.99657
クル	-9.99703
ベイ	-9.9977
性能	-9.99789
リス	-9.99792
まして	-9.99793
チン	-9.99839
でない	-9.99842
を開始した	-9.99849
笑	-9.99869
俺	-9.99945
これら	-9.99985
言った	-9.9999
でした	-10.0006
見る	-10.0006
▁6	-10.0007
勇	-10.0007
バージョン	-10.0008
長く	-10.0011
やうに	-10.0012
ようになる	-10.0014
掲載	-10.0018
ブラジル	-10.0019
先に	-10.0029
準	-10.0035
価格	-10.0035
保存	-10.0038
ヴァー	-10.0039
活躍	-10.0041
安全	-10.0053
文書	-10.0054
いつも	-10.0056
理解	-10.0059
ではないか	-10.006
ピー	-10.0062
そこに	-10.0064
第三	-10.008
照	-10.0084
58	-10.0085
晴	-10.0086
交渉	-10.0089
主人	-10.0091
きょう	-10.0099
旅行	-10.0099
ホー	-10.01
フォ	-10.01
名が	-10.0101
オープン	-10.0103
飛	-10.011
ッシュ	-10.011
向き	-10.0111
ファー	-10.0116
議論	-10.0118
オス	-10.0125
ボール	-10.0125
之助	-10.0138
価値	-10.0138
ウェイ	-10.0141
候	-10.0142
伝説	-10.0142
エー	-10.0155
メル	-10.0157
乗り	-10.0157
よし	-10.0161
武器	-10.0166
病気	-10.0167
と同様に	-10.0168
を有する	-10.017
ia	-10.017
小型	-10.0171
翼	-10.0181
軒	-10.0182
ソー	-10.0182
ソフト	-10.0184
唯一の	-10.0192
ごう	-10.0196
卵	-10.0204
恵	-10.0205
1994	-10.0207
スタッフ	-10.0208
しかし	-10.0213
僧	-10.0221
交流	-10.0222
医師	-10.0224
性質	-10.0225
ヘル	-10.0226
初め	-10.0226
ていく	-10.023
一時	-10.0237
ポン	-10.024
号線	-10.0242
▁formula	-10.0253
|	-10.0255
んでいる	-10.0257
グラ	-10.0257
本線	-10.026
49	-10.0262
54	-10.0264
昔	-10.027
確認	-10.0272
われ	-10.0274
将	-10.0278
ション	-10.0285
範囲	-10.0285
そこで	-10.0293
伯	-10.0294
みな	-10.0296
固	-10.0299
全ての	-10.0299
供給	-10.031
をしている	-10.0315
▁m	-10.0316
テーマ	-10.0318
件	-10.0321
けれど	-10.0323
高速	-10.0324
合計	-10.0325
憲法	-10.0336
バラ	-10.0346
▁1990	-10.0353
アナ	-10.0367
64	-10.0369
成立	-10.037
ポール	-10.037
でございます	-10.0388
痛	-10.0388
潮	-10.039
補	-10.0402
ro	-10.0408
編集	-10.041
ゴール	-10.0414
▁日本では	-10.0416
結合	-10.0417
練習	-10.0418
これに	-10.0418
▁J	-10.0418
1992	-10.0425
目に	-10.0427
仙	-10.0427
クリ	-10.0431
事情	-10.0432
ものと	-10.0433
年にかけて	-10.0433
中継	-10.0435
降	-10.0435
展示	-10.0436
75	-10.0436
接続	-10.0437
軍は	-10.0439
判断	-10.045
買	-10.0454
デジタル	-10.0456
ユー	-10.0456
禁止	-10.0461
ひとつ	-10.0461
太平洋	-10.0464
独	-10.0465
衆	-10.0468
SS	-10.0468
しました	-10.0472
タウン	-10.0474
区別	-10.0474
ベース	-10.0479
裁判	-10.0482
言う	-10.0489
最初に	-10.0491
球団	-10.0494
師団	-10.0497
いち	-10.051
判	-10.0511
ナン	-10.0521
誰	-10.0522
モード	-10.0524
ネットワーク	-10.0525
立て	-10.0527
▁N	-10.053
ジャパン	-10.0532
認識	-10.0533
1993	-10.0533
競走	-10.0535
改良	-10.0536
機会	-10.0537
母親	-10.0543
ときに	-10.0545
計算	-10.0545
不足	-10.0548
護	-10.055
らが	-10.056
なども	-10.0563
からなる	-10.0564
劉	-10.057
向上	-10.0571
タル	-10.0574
申	-10.0574
わたし	-10.0584
固定	-10.0587
スタート	-10.0587
本塁打	-10.0589
あなた	-10.0591
声優	-10.0592
プレ	-10.0592
國	-10.0601
圧	-10.0604
信仰	-10.0607
扉	-10.0611
健康	-10.0616
下り	-10.0621
ヴァン	-10.0624
▁ところが	-10.0625
論文	-10.0629
▁I	-10.0632
出力	-10.0633
対策	-10.0635
地点	-10.0635
家庭	-10.0641
を持って	-10.0644
現実	-10.065
比較的	-10.0651
見ると	-10.0654
1991	-10.0655
側に	-10.0655
を用いて	-10.0656
こともあり	-10.0657
ドア	-10.0657
拠点	-10.0662
東北	-10.0664
となっており	-10.0669
ハウス	-10.067
然	-10.0672
紹介	-10.0672
ロード	-10.0673
1989	-10.0673
灯	-10.0673
メイ	-10.0681
を務め	-10.0685
良い	-10.0686
▁V	-10.0688
住宅	-10.069
投票	-10.0692
部長	-10.0693
邦	-10.0694
▁ただ	-10.0696
▁その他	-10.0697
▁and	-10.0707
スウェーデン	-10.0709
鏡	-10.0709
知事	-10.071
近代	-10.071
記載	-10.0711
180	-10.0713
遺	-10.0716
支持	-10.0716
宣言	-10.0717
分析	-10.0722
ソロ	-10.073
MA	-10.073
自分が	-10.0731
じょう	-10.0734
記憶	-10.0735
本社	-10.0736
舞	-10.0737
法人	-10.0738
政治家	-10.0743
グル	-10.0743
労働者	-10.0744
かれ	-10.0747
医学	-10.0748
自治体	-10.0751
ぶり	-10.0753
ベン	-10.0753
大きい	-10.0754
多い	-10.0757
低い	-10.0758
目標	-10.0761
ずに	-10.0774
廻	-10.0776
果	-10.0776
についても	-10.0788
彼女の	-10.0793
澤	-10.0793
期待	-10.0795
羅	-10.0796
率いる	-10.0801
プロデューサー	-10.0801
富士	-10.0804
材	-10.0804
くらい	-10.0808
たちが	-10.0809
しても	-10.081
完全	-10.081
次の	-10.0815
エス	-10.0818
私が	-10.082
でき	-10.0847
日より	-10.0848
ける	-10.0849
除	-10.0849
知識	-10.0858
画家	-10.0859
覚	-10.0861
実行	-10.0862
泰	-10.0864
OS	-10.0865
同一	-10.0872
するという	-10.0872
丁	-10.0872
禁	-10.0875
デス	-10.0877
×	-10.0877
養	-10.0882
始めた	-10.0883
トンネル	-10.089
復活	-10.089
ウィリアム	-10.0891
▁1999	-10.0894
棒	-10.0901
しばらく	-10.0903
56	-10.0903
パス	-10.0904
99	-10.0906
夕	-10.0907
を使って	-10.091
りました	-10.0911
形状	-10.0915
過去	-10.0917
患者	-10.0917
身体	-10.0919
屋敷	-10.0924
自動	-10.0928
彼が	-10.093
いずれ	-10.093
子が	-10.0931
刺	-10.0931
王座	-10.0932
改	-10.0933
ドー	-10.0935
毎日	-10.0936
会場	-10.0937
セント	-10.0939
残り	-10.0949
ひろ	-10.0949
レギュラー	-10.0957
キリスト教	-10.096
儀	-10.0965
手に	-10.0965
サイド	-10.097
すなわち	-10.0985
指導者	-10.0987
植民地	-10.0987
を見た	-10.0993
演出	-10.0994
を引き	-10.0997
案内	-10.0999
▁de	-10.1009
英国	-10.1011
運	-10.1011
▁16	-10.1016
証	-10.1023
弟子	-10.1026
▁当時	-10.1026
すべての	-10.1029
方針	-10.1035
ブラック	-10.1035
フォー	-10.104
家に	-10.1047
ひとり	-10.1048
コーチ	-10.1049
抵抗	-10.105
ation	-10.1052
雅	-10.106
▁元	-10.106
年代に	-10.1062
輝	-10.1067
納	-10.1068
ダンス	-10.1068
性格	-10.1069
したこと	-10.1069
指摘	-10.1069
追加	-10.1074
▁明治	-10.108
エイ	-10.1083
ネス	-10.1088
ビン	-10.1093
組合	-10.1094
世代	-10.1095
半分	-10.1095
政党	-10.1104
人民	-10.1104
その他	-10.1109
を果たした	-10.1114
幕府	-10.1122
検査	-10.1124
拡張	-10.1131
世は	-10.1133
などがある	-10.1133
TBS	-10.114
強化	-10.114
炎	-10.115
!!	-10.1151
ra	-10.1152
までに	-10.1155
傾向	-10.1156
民間	-10.1164
麻	-10.1168
街道	-10.117
乳	-10.1171
la	-10.1171
談	-10.1174
試	-10.1177
各種	-10.1179
海岸	-10.1181
購入	-10.1183
あらゆる	-10.1193
かた	-10.1196
に入った	-10.1202
環	-10.1204
シア	-10.1205
鹿	-10.1206
則	-10.1206
日間	-10.1208
それまで	-10.1211
原作	-10.1222
解散	-10.1231
鎮	-10.1235
市長	-10.124
エリア	-10.1247
関数	-10.1248
滝	-10.1251
金属	-10.1254
力を	-10.1259
am	-10.126
化した	-10.126
57	-10.1268
取引	-10.1269
戦車	-10.1269
推進	-10.1273
尊	-10.1274
奇	-10.1274
1988	-10.1281
最大の	-10.1286
沖	-10.1289
マス	-10.129
に加え	-10.1292
解釈	-10.1297
なった	-10.1298
レッド	-10.1301
浪	-10.1302
多数の	-10.1309
出来	-10.131
時点で	-10.1312
後期	-10.1316
アウト	-10.1318
で開催された	-10.1318
脚本	-10.1321
をはじめ	-10.1322
人生	-10.1334
原因	-10.1334
ソフトウェア	-10.134
舟	-10.1341
に至る	-10.1341
連隊	-10.1343
ップ	-10.1352
フィールド	-10.1352
猫	-10.1353
児童	-10.1354
1987	-10.1357
ブレ	-10.1358
呉	-10.1362
っており	-10.1364
始め	-10.1366
エア	-10.1367
戻	-10.1372
全日本	-10.1378
りと	-10.1379
煙	-10.138
手法	-10.1384
ケース	-10.1386
伴	-10.1386
した後	-10.1388
半島	-10.1391
嘉	-10.1395
奈	-10.1398
五郎	-10.1398
代わりに	-10.1404
処分	-10.1404
ジュニア	-10.1404
民主党	-10.1405
段階	-10.1406
まった	-10.1408
合成	-10.1419
寄	-10.1425
ノン	-10.1425
59	-10.1426
隠	-10.1428
に関しては	-10.143
認定	-10.143
坊	-10.1431
対立	-10.1432
押	-10.1434
un	-10.1438
いつ	-10.1439
魂	-10.1442
ページ	-10.1445
さんは	-10.145
被害	-10.1452
諸国	-10.1453
ベルリン	-10.1453
ちょう	-10.1456
失敗	-10.1458
年生	-10.1459
からも	-10.1464
習	-10.1465
従来	-10.1465
収	-10.1468
屋根	-10.1469
独自の	-10.1471
何も	-10.1472
イル	-10.1476
▁本	-10.1477
ーズ	-10.1481
菌	-10.1484
券	-10.1486
声が	-10.1487
できた	-10.1489
とされた	-10.1489
賢	-10.149
レット	-10.1492
ブー	-10.1492
立場	-10.1495
往	-10.15
獣	-10.1503
附	-10.1505
一覧	-10.1505
鈴木	-10.1509
問	-10.1509
▁10	-10.1517
田中	-10.1519
あら	-10.152
腰	-10.1522
眼を	-10.1529
ri	-10.1538
一本	-10.1542
埼玉県	-10.1542
されたが	-10.1552
貿易	-10.1555
作用	-10.1556
中村	-10.156
広告	-10.1564
を除く	-10.1566
有名	-10.1567
li	-10.1571
吾	-10.1574
愛知県	-10.1578
一方で	-10.1584
通称	-10.1587
国鉄	-10.1588
秘密	-10.1595
銭	-10.1597
場合には	-10.1599
厳	-10.161
を始め	-10.1621
改正	-10.1624
場合もある	-10.1624
ic	-10.1626
らぬ	-10.1627
幾	-10.163
提案	-10.1632
ルール	-10.1632
虎	-10.1634
―	-10.1634
主な	-10.1634
IN	-10.1639
突	-10.1644
▁三	-10.1652
ッチ	-10.1652
破壊	-10.1652
結成	-10.1654
ブロック	-10.1655
長崎	-10.1659
チョ	-10.1662
メキシコ	-10.1665
籠	-10.1669
カメラ	-10.1669
ついた	-10.1672
生命	-10.1681
ポリ	-10.1683
グリーン	-10.1687
中間	-10.1691
かえ	-10.1693
ヒット	-10.1698
次第に	-10.1699
強く	-10.1703
にわたって	-10.1705
結局	-10.1709
アリ	-10.171
三人	-10.1711
いている	-10.1711
の影響	-10.1712
と考えられる	-10.1716
侍	-10.1716
物を	-10.1723
張り	-10.1724
見え	-10.1731
規制	-10.1732
突然	-10.1732
安定	-10.1736
陳	-10.1737
比較	-10.1741
まあ	-10.1745
塚	-10.1747
没	-10.1751
▁これにより	-10.1752
プリ	-10.1755
pan	-10.1755
翻訳	-10.176
特定	-10.1761
更新	-10.1765
チュ	-10.1767
これまで	-10.1767
サル	-10.1769
▁<	-10.1772
単に	-10.178
ボル	-10.1784
録音	-10.1784
することを	-10.1784
分子	-10.1789
高く	-10.1789
就任	-10.1798
1985	-10.18
テレ	-10.1801
改善	-10.1806
であること	-10.181
ここに	-10.1813
感情	-10.1814
昇	-10.182
宇	-10.1822
に由来する	-10.1823
いだ	-10.1824
週間	-10.1835
ワイ	-10.1843
可能な	-10.1847
どこ	-10.1852
とされ	-10.1852
#	-10.1856
派遣	-10.1856
ごろ	-10.1857
ランキング	-10.1862
クレ	-10.1873
デイ	-10.1874
プレー	-10.1876
目を	-10.188
セイ	-10.1882
微	-10.1883
吉田	-10.1886
峰	-10.1887
ギター	-10.1888
アーティスト	-10.1896
▁1980	-10.1896
たら	-10.1898
寿	-10.19
年齢	-10.19
調整	-10.1902
仮	-10.1905
福岡	-10.1911
マリ	-10.1914
と思われる	-10.1914
様子	-10.1915
られていた	-10.1916
だつた	-10.1925
有名な	-10.1928
PS	-10.1931
名誉	-10.1937
算	-10.1943
1986	-10.1947
航空機	-10.1947
作者	-10.1949
ヶ月	-10.195
化された	-10.195
▁1998	-10.195
同様	-10.195
やり	-10.1951
願	-10.1953
晩	-10.1953
閉	-10.1957
作り	-10.1957
ミニ	-10.1962
ドラ	-10.1962
集合	-10.1964
押し	-10.1966
遺跡	-10.1967
西洋	-10.197
▁8	-10.1975
るように	-10.1977
益	-10.1979
▁当初は	-10.1981
▁12	-10.1981
ヴォ	-10.1982
投げ	-10.1987
仰	-10.1987
AT	-10.1988
泊	-10.1994
譲	-10.2007
復	-10.2012
ワールドカップ	-10.2021
オール	-10.2022
ヒル	-10.2023
もまた	-10.2025
当たり	-10.2027
従来の	-10.2031
発射	-10.2034
荘	-10.2034
権利	-10.2048
のまま	-10.2048
さまざまな	-10.206
脇	-10.2062
替え	-10.2066
婦人	-10.2067
51	-10.2068
香港	-10.2071
浅	-10.2072
▁7	-10.2074
ピン	-10.2076
事実上	-10.2082
シル	-10.2088
アイルランド	-10.209
約束	-10.2091
複数	-10.2093
ポー	-10.2097
ol	-10.21
高等	-10.2108
コンサート	-10.2109
維持	-10.2113
現地	-10.2114
市出身	-10.2115
雷	-10.2118
GP	-10.212
統治	-10.2121
をもつ	-10.2125
えた	-10.2125
スク	-10.2129
アナウンサー	-10.213
犯罪	-10.2134
そうな	-10.2135
にもかかわらず	-10.2136
本作	-10.2136
800	-10.2137
およそ	-10.2139
実に	-10.2148
▁2019	-10.215
テレビドラマ	-10.215
如	-10.2151
作曲家	-10.2157
〉	-10.2157
ゴー	-10.2158
暦	-10.2158
史上	-10.2158
紀元前	-10.2159
区域	-10.2159
後述	-10.2161
話を	-10.2163
ナイ	-10.2171
5%	-10.2174
活	-10.2175
id	-10.2176
ウル	-10.2178
創	-10.218
燃料	-10.2181
藤原	-10.2181
は約	-10.2183
主催	-10.2184
許可	-10.2186
〈	-10.2186
卒	-10.22
西側	-10.2203
在籍	-10.2204
に関して	-10.2204
系列	-10.2204
態度	-10.2208
芳	-10.2209
回復	-10.221
わが	-10.2215
▁in	-10.2216
ハル	-10.2221
ちょっと	-10.2221
末期	-10.2229
吹	-10.2231
ナイト	-10.2233
刑	-10.2236
であるため	-10.2242
テスト	-10.2245
ラス	-10.2245
近い	-10.2245
52	-10.225
学会	-10.2255
千葉県	-10.2257
稲	-10.2258
概念	-10.2259
挑戦	-10.2263
年以降	-10.2268
著	-10.2268
奏	-10.2277
ものであり	-10.2278
マイル	-10.2279
そういう	-10.228
常に	-10.2286
輸入	-10.2288
1984	-10.2288
洗	-10.229
後も	-10.2291
動作	-10.2292
まれ	-10.2293
だって	-10.2294
ガル	-10.2295
らん	-10.2297
黒い	-10.2298
創設	-10.2299
崩壊	-10.23
のみで	-10.2302
玄	-10.2305
ということ	-10.2307
生涯	-10.2307
艇	-10.231
と対戦し	-10.231
ッド	-10.2311
月より	-10.2317
▁今	-10.2318
やすい	-10.2321
置	-10.2326
銅	-10.2328
僕は	-10.2336
示	-10.2336
仏教	-10.2338
危機	-10.234
存	-10.2346
MS	-10.2346
ケイ	-10.2349
▁彼の	-10.235
労	-10.235
はじめ	-10.2352
整	-10.2359
おい	-10.2363
かず	-10.2364
と呼ばれ	-10.2371
掛	-10.2374
寒	-10.2378
王者	-10.238
1950	-10.2383
▁後に	-10.2387
沖縄	-10.2391
左右	-10.2391
ミス	-10.2392
ステ	-10.2394
斎	-10.2395
ゆき	-10.2397
ゲスト	-10.2397
分割	-10.2402
主要	-10.2406
ine	-10.2408
であって	-10.2409
誕生	-10.241
というもの	-10.2411
指名	-10.2411
▁すると	-10.2413
ヶ	-10.2414
一つの	-10.2416
滅	-10.2417
教師	-10.242
氏は	-10.242
演劇	-10.2424
希望	-10.2425
国王	-10.2439
しさ	-10.244
千葉	-10.2444
グランプリ	-10.2448
現場	-10.245
億円	-10.2451
▁O	-10.2451
軍人	-10.2453
二つ	-10.2457
ケー	-10.2457
フラ	-10.246
相当	-10.2464
伊勢	-10.2465
食品	-10.2468
ものだ	-10.2468
事態	-10.2471
右衛門	-10.2471
居る	-10.2489
君は	-10.2492
弥	-10.2492
53	-10.2496
宣	-10.2503
衛星	-10.2505
を用いた	-10.2505
を持っている	-10.2506
になっていた	-10.2509
SC	-10.251
まつ	-10.2512
地に	-10.2512
▁全	-10.2515
寺院	-10.2517
十二	-10.2522
長官	-10.2522
RO	-10.2527
高さ	-10.2528
恐れ	-10.2529
とも呼ばれる	-10.253
兵士	-10.2531
占領	-10.2535
▁1997	-10.2535
TO	-10.254
関係者	-10.2542
ですか	-10.2546
行う	-10.2546
150	-10.2549
袋	-10.2552
日本で	-10.2555
危険	-10.2555
おう	-10.2559
▁東京	-10.256
を得る	-10.2565
に登場する	-10.2566
していく	-10.2566
芸	-10.2569
リック	-10.257
狂	-10.2571
スペシャル	-10.2574
切れ	-10.258
画面	-10.258
マシン	-10.258
まるで	-10.2581
85	-10.2581
62	-10.2582
ンズ	-10.2585
見て	-10.2587
学院	-10.2593
限り	-10.2594
下に	-10.2598
以前	-10.2599
BS	-10.26
昼	-10.2602
に参加	-10.2602
ter	-10.2602
寛	-10.2604
証拠	-10.2606
たもの	-10.2606
リュ	-10.261
庄	-10.2618
争い	-10.2622
辞	-10.2625
決して	-10.2627
ot	-10.2632
誠	-10.2633
はまだ	-10.2635
特殊	-10.2635
菊	-10.2641
依頼	-10.2661
人と	-10.2661
95	-10.2662
万ドル	-10.2663
財政	-10.2665
にまで	-10.267
ir	-10.2672
もっと	-10.2681
すら	-10.2683
ファイル	-10.2683
弁護士	-10.2684
首都	-10.2685
大和	-10.2689
死んだ	-10.2692
加入	-10.2693
恩	-10.2694
大規模な	-10.2695
犯	-10.2697
所有	-10.2699
貨物	-10.2703
模様	-10.2703
されていたが	-10.2705
月号	-10.2711
悪い	-10.2714
ヴェル	-10.2715
年現在	-10.2719
見える	-10.2721
うる	-10.2731
ちゃ	-10.2732
けい	-10.2735
支	-10.2737
試み	-10.2738
冊	-10.2738
na	-10.2747
▁1996	-10.275
多数	-10.275
山田	-10.275
パラ	-10.2752
フレ	-10.2753
▁新	-10.2758
86	-10.276
るもの	-10.2763
むしろ	-10.2765
ig	-10.2765
イオン	-10.2765
兵器	-10.2766
se	-10.2767
63	-10.277
つまり	-10.2771
えき	-10.278
co	-10.2787
国境	-10.279
も多い	-10.2799
快	-10.2807
スイス	-10.2808
ディア	-10.281
ルイ	-10.281
78	-10.2813
なもの	-10.2814
一族	-10.2815
潜水艦	-10.2817
コール	-10.2818
役割	-10.2823
長期	-10.2824
参戦	-10.2827
するもの	-10.2829
もし	-10.2832
票	-10.2834
後半	-10.2835
lo	-10.2835
夫婦	-10.2835
の場合	-10.2835
駒	-10.2838
レーベル	-10.2839
本人	-10.2841
サイズ	-10.2842
クー	-10.2843
側の	-10.2849
ロケット	-10.2849
さき	-10.2849
功	-10.2851
例えば	-10.2852
ッカー	-10.2853
自治	-10.2855
己	-10.2855
隣	-10.2855
棟	-10.2856
かね	-10.2857
裕	-10.2861
峠	-10.2865
けれども	-10.2866
工学	-10.2869
々と	-10.2875
▁11	-10.2878
膝	-10.2881
敷	-10.2883
実は	-10.2883
はほとんど	-10.2887
98	-10.2889
1982	-10.289
箇所	-10.2892
彼ら	-10.2895
利益	-10.2896
ザン	-10.2899
をしていた	-10.29
トム	-10.2914
ング	-10.2915
とても	-10.2917
タレント	-10.2922
チャー	-10.2926
é	-10.2926
練	-10.2929
材料	-10.2929
様式	-10.2931
▁1995	-10.2931
主要な	-10.2931
事が	-10.2933
んでいた	-10.2934
進行	-10.2939
競馬	-10.2939
88	-10.2943
自身が	-10.2943
um	-10.2945
ならない	-10.2949
を持った	-10.295
佐藤	-10.2955
貫	-10.2956
大阪府	-10.2959
まえ	-10.2959
パル	-10.2962
してゐる	-10.2965
クト	-10.2975
メジャー	-10.2978
カリ	-10.2981
聞き	-10.2982
を通して	-10.2986
てゐた	-10.2986
上位	-10.2988
カイ	-10.2989
他に	-10.299
だよ	-10.2992
河川	-10.2992
のち	-10.2993
寄り	-10.3005
キュ	-10.3007
1983	-10.3009
迫	-10.3009
ことである	-10.3014
余り	-10.3015
77	-10.3016
ユダヤ人	-10.302
表面	-10.3021
76	-10.3022
が行われる	-10.3026
を表す	-10.3028
が必要	-10.303
妙	-10.303
男女	-10.303
側面	-10.3031
牧	-10.3032
そのもの	-10.3041
丈	-10.3042
尺	-10.3045
ウィン	-10.3046
カバー	-10.3057
正式に	-10.3059
ここで	-10.3061
えて	-10.3066
赤い	-10.3066
短い	-10.3067
亜	-10.3069
検	-10.3075
演	-10.3076
心を	-10.3076
録	-10.3079
姉妹	-10.308
仙台	-10.308
も多く	-10.3081
地名	-10.3084
爆発	-10.3085
▁ア	-10.3089
価	-10.3089
さい	-10.3093
未来	-10.3094
笠	-10.3099
皇	-10.3101
formula	-10.3104
と思った	-10.3106
度目の	-10.3107
1972	-10.311
学科	-10.311
のひとつ	-10.3115
裁判所	-10.3115
一日	-10.3119
抗	-10.3119
中部	-10.312
死亡	-10.3127
できなかった	-10.313
別の	-10.3133
普及	-10.3134
なき	-10.3134
印象	-10.3135
合う	-10.3137
ly	-10.314
os	-10.3141
極めて	-10.3146
捜査	-10.3149
適用	-10.3151
涙	-10.3151
臨	-10.3151
心配	-10.3154
供	-10.3155
云った	-10.3156
上り	-10.3156
はなく	-10.3158
ベー	-10.3159
刑事	-10.316
侵攻	-10.3161
のちに	-10.3167
ゐる	-10.3175
プル	-10.3176
撤退	-10.3178
東海	-10.3179
解放	-10.3183
移転	-10.3183
にいた	-10.3185
故	-10.3186
シャン	-10.3187
闘	-10.3188
作成	-10.3188
眠	-10.319
持つ	-10.3193
それら	-10.3193
思う	-10.3194
祖父	-10.3197
構想	-10.3199
栽培	-10.3199
両親	-10.32
▁このような	-10.3201
マリア	-10.3201
ジャック	-10.3205
66	-10.3206
おか	-10.3212
混乱	-10.3217
インタビュー	-10.3221
SE	-10.3224
続く	-10.3227
業界	-10.323
限	-10.3232
▁彼女は	-10.3233
て来た	-10.3234
云う	-10.3235
戦略	-10.3236
どうして	-10.3237
負け	-10.3241
導	-10.3241
駅間	-10.3241
相談	-10.3243
当時は	-10.3246
することが	-10.3247
ようと	-10.3253
はい	-10.3253
急行	-10.3255
豪	-10.3255
舎	-10.3255
チャンネル	-10.3256
通過	-10.3256
双	-10.3256
ネー	-10.3256
信号	-10.3258
著作	-10.3261
ヤン	-10.3264
外国	-10.3267
交差点	-10.3268
を求める	-10.3269
株	-10.327
再生	-10.3274
遠く	-10.3275
業者	-10.3276
徒	-10.3277
札	-10.3284
徐々に	-10.3291
阪神	-10.3295
同様に	-10.3297
似	-10.3304
降り	-10.3304
鳴	-10.3305
規格	-10.3307
急に	-10.3308
KO	-10.331
が可能	-10.3311
1979	-10.3315
ニン	-10.332
ことにより	-10.3325
作詞	-10.3325
と同様	-10.3326
と同じく	-10.3332
行われ	-10.3332
マッ	-10.3335
勤務	-10.3336
SP	-10.3337
コミック	-10.3337
ようになり	-10.3339
_	-10.3346
義務	-10.3347
されること	-10.3348
<	-10.3349
不明	-10.3356
宅	-10.3358
様に	-10.3358
惑星	-10.3363
尚	-10.3365
継承	-10.3366
そば	-10.3366
ガラス	-10.337
展	-10.338
武装	-10.3382
規則	-10.3384
聴	-10.3387
1975	-10.339
▁現在の	-10.3391
膜	-10.3393
61	-10.3397
文庫	-10.3398
朱	-10.34
育成	-10.3403
将来	-10.3406
山本	-10.3408
つけた	-10.3409
チャンピオン	-10.3412
桃	-10.3414
形成	-10.3414
衝突	-10.3415
二十	-10.3416
ていった	-10.3416
たま	-10.342
があって	-10.3422
オペラ	-10.3424
ソング	-10.3424
分け	-10.3426
SA	-10.3429
ビット	-10.3431
読	-10.3431
岳	-10.3434
マク	-10.3435
帳	-10.3438
兵庫県	-10.3438
地帯	-10.3444
このような	-10.3446
に就任	-10.3449
去	-10.345
予想	-10.3452
一般的な	-10.3454
1945	-10.3455
流行	-10.3455
▁1970	-10.3459
集落	-10.346
スタン	-10.3462
を超える	-10.3462
荷	-10.3463
職員	-10.3465
繋	-10.3466
ベルク	-10.3466
洞	-10.3471
由来	-10.3478
に位置し	-10.3478
トレ	-10.3479
昭	-10.3481
働き	-10.3482
CO	-10.3484
ましょう	-10.3485
アラ	-10.3488
追い	-10.3489
一体	-10.3492
▁小	-10.3493
清水	-10.3495
サラ	-10.3496
らは	-10.3496
山口	-10.3499
▁しかしながら	-10.3505
神奈川県	-10.3507
ペル	-10.3511
と述べている	-10.3515
ブロ	-10.3517
であれば	-10.3521
スペース	-10.3522
邸	-10.3522
手段	-10.3524
トルコ	-10.3525
敏	-10.3526
に基づく	-10.3526
ネル	-10.3528
中学	-10.3533
書いた	-10.3535
発言	-10.3536
文献	-10.3536
時計	-10.3541
幼	-10.3545
の下に	-10.3546
関心	-10.3546
のみならず	-10.3547
ビジネス	-10.355
わし	-10.3551
ゴン	-10.3552
松本	-10.3553
美術館	-10.3554
事は	-10.3557
ダル	-10.3558
▁一方で	-10.3566
ッタ	-10.3568
かと	-10.3571
世間	-10.3575
斉	-10.3576
統計	-10.3577
掛け	-10.3579
スタジアム	-10.358
ミル	-10.358
亀	-10.3581
指示	-10.3583
検討	-10.3584
減少	-10.3584
るが	-10.3589
ワシントン	-10.3595
存在する	-10.3596
増加	-10.3602
標高	-10.3605
1981	-10.3607
登板	-10.3608
ロサンゼルス	-10.3612
熊	-10.3612
続	-10.3613
著書	-10.3616
FA	-10.3616
ゐ	-10.3619
打率	-10.3619
600	-10.3626
巣	-10.3627
ブレーキ	-10.3634
TA	-10.3635
ながらも	-10.3639
cols	-10.3641
の歴史	-10.3644
してしまう	-10.3644
1978	-10.3645
アク	-10.3645
現在も	-10.3647
通じ	-10.3648
ウェ	-10.365
小林	-10.3658
モスクワ	-10.3658
ヴァル	-10.366
de	-10.3661
衛	-10.3664
描写	-10.3664
▁1994	-10.3667
歌詞	-10.3667
回り	-10.3668
開発された	-10.3668
の一つである	-10.367
スクール	-10.3671
刊行	-10.3671
▁9	-10.3673
奉	-10.3674
ハンガリー	-10.368
証明	-10.368
人形	-10.3683
広い	-10.3683
戦では	-10.3686
上昇	-10.369
人類	-10.3692
うた	-10.3693
いたが	-10.3695
スは	-10.3695
いで	-10.3697
引き続き	-10.3698
札幌	-10.3698
を始めた	-10.37
ジョー	-10.3708
装甲	-10.3708
外国人	-10.3708
生成	-10.371
彼らの	-10.3711
当選	-10.3719
に取り	-10.3719
ント	-10.3719
オフ	-10.3725
ショ	-10.3726
重要	-10.3731
協定	-10.3733
次元	-10.3734
ティング	-10.3737
ユーザー	-10.3739
使い	-10.3741
威	-10.3741
かどうか	-10.3749
と呼ばれた	-10.375
完全に	-10.3758
戦線	-10.3759
激しい	-10.3762
ただし	-10.3764
to	-10.3765
カット	-10.3765
訴え	-10.3767
途	-10.3769
の方へ	-10.3769
からである	-10.3773
参照	-10.3774
揚	-10.3774
輸出	-10.3778
権力	-10.3778
人で	-10.3782
ヌス	-10.3782
クロス	-10.3783
不安	-10.3785
遣	-10.3787
リンク	-10.3789
ゲル	-10.379
決勝	-10.3792
に於て	-10.3793
須	-10.3794
楽器	-10.3795
2019	-10.3799
と言って	-10.3804
東洋	-10.3811
FM	-10.3811
する事	-10.3813
なさい	-10.3814
らい	-10.3816
重量	-10.3819
▁この時	-10.382
気持	-10.3821
1973	-10.3824
▁主に	-10.3824
ゆく	-10.3825
用語	-10.3828
入学	-10.383
捕	-10.3833
粉	-10.3837
を作る	-10.3848
紫	-10.3852
アイドル	-10.3855
かけて	-10.3857
ものがある	-10.3858
液	-10.3859
68	-10.3861
RE	-10.3861
たく	-10.3861
判決	-10.3862
詞	-10.3862
その他の	-10.3866
呼称	-10.3869
創立	-10.3869
植	-10.387
来て	-10.3873
ついに	-10.3873
各国	-10.388
小屋	-10.3882
さない	-10.3882
の中から	-10.3883
に参加した	-10.3885
1969	-10.3888
エジプト	-10.3888
笑い	-10.3891
といって	-10.3892
の間で	-10.3893
年からは	-10.3897
それらの	-10.3897
チャン	-10.3902
先発	-10.3905
96	-10.3907
基礎	-10.3908
欠	-10.391
口を	-10.391
なので	-10.3913
決	-10.392
との間に	-10.3921
紋	-10.3921
走行	-10.3926
桂	-10.3928
と云ふ	-10.3929
ST	-10.3932
開幕	-10.3935
の下で	-10.3936
執行	-10.3936
帰り	-10.3937
帰国	-10.394
特急	-10.394
遠征	-10.394
インディアン	-10.3945
されない	-10.3948
1968	-10.3956
エピソード	-10.3957
東側	-10.3957
デュ	-10.3958
二つの	-10.396
ないこと	-10.3969
売り	-10.397
転換	-10.3972
姿勢	-10.3976
山脈	-10.3978
▁つまり	-10.3983
au	-10.3983
劇団	-10.3984
道具	-10.3989
を描いた	-10.3992
弓	-10.3994
を獲得した	-10.3995
no	-10.3995
保険	-10.3998
もっとも	-10.4
栗	-10.4004
フィルム	-10.4005
公共	-10.4006
1976	-10.4006
でもあった	-10.4009
ほん	-10.4013
そうだ	-10.4014
洲	-10.4015
だらう	-10.4016
詩人	-10.4018
なんか	-10.4023
執筆	-10.4023
無線	-10.4026
襲	-10.4026
1974	-10.4027
わず	-10.4027
乾	-10.4033
金融	-10.4035
面積	-10.4035
相互	-10.4037
を記録した	-10.404
戦隊	-10.4045
主力	-10.4045
かもしれない	-10.4046
周囲	-10.405
体験	-10.4052
▁旧	-10.4055
逆に	-10.4057
最多	-10.4057
包	-10.4061
▁これが	-10.4061
ギリシャ	-10.4066
新宿	-10.4067
きり	-10.4068
けて	-10.4071
るようになった	-10.4071
解説	-10.4071
なんて	-10.4073
最後に	-10.4074
わずか	-10.4077
封	-10.4082
▁1992	-10.4082
ドリ	-10.4083
奴隷	-10.4085
を見る	-10.4085
空軍	-10.4086
立つ	-10.4087
;	-10.4087
ラル	-10.4092
駆逐艦	-10.4094
きて	-10.4095
CA	-10.4096
日本では	-10.41
蘭	-10.4101
酸化	-10.4108
に就任した	-10.411
観察	-10.411
ごく	-10.4111
パワー	-10.4112
どうも	-10.4115
nd	-10.4118
略称	-10.412
オーバー	-10.4126
ケル	-10.4127
and	-10.4134
リュー	-10.4137
ミサイル	-10.4138
起源	-10.414
かに	-10.414
というのは	-10.4141
かう	-10.4144
猛	-10.4146
想像	-10.4147
予算	-10.4151
1971	-10.4152
やや	-10.4152
スル	-10.4154
▁かつては	-10.4157
現在では	-10.4165
ヲ	-10.4166
投資	-10.4166
二人の	-10.4167
取得	-10.4168
やって	-10.417
厚	-10.417
今まで	-10.4174
印刷	-10.4175
盗	-10.4177
おれ	-10.4181
武士	-10.4182
事業者	-10.419
三十	-10.4193
費用	-10.4194
数字	-10.4201
▁こうした	-10.4204
が高い	-10.4204
リーダー	-10.4205
を得て	-10.4205
つい	-10.4207
講師	-10.4212
高橋	-10.4213
つけて	-10.4217
市にある	-10.4218
静岡県	-10.422
なくなる	-10.422
就	-10.4221
又は	-10.423
一部の	-10.4232
継	-10.4234
ではなかった	-10.4235
ベルト	-10.4238
外交	-10.4239
してしまった	-10.4243
軍団	-10.4243
ったり	-10.4255
▁各	-10.4255
蛇	-10.4257
対戦	-10.4257
ent	-10.4258
守護	-10.426
3,	-10.4263
選出	-10.4267
子会社	-10.4268
秘	-10.427
キャリア	-10.427
侯	-10.4272
ブラン	-10.4273
彼を	-10.4273
芝	-10.4276
地下鉄	-10.4278
87	-10.428
▁やがて	-10.4282
まったく	-10.4288
に出	-10.4291
をお	-10.4291
研究者	-10.4292
故障	-10.43
話題	-10.4303
藩主	-10.4303
低下	-10.4304
入団	-10.4305
闇	-10.4306
陵	-10.4306
カス	-10.4307
老人	-10.4308
アメリカ合衆国の	-10.4312
を感じ	-10.4313
備	-10.4313
畳	-10.4315
修正	-10.4317
フー	-10.432
特定の	-10.4323
とおり	-10.4325
昇格	-10.4327
止め	-10.4327
こちら	-10.4331
即	-10.4332
沈	-10.4336
北側	-10.434
伸び	-10.4342
明らかに	-10.4344
管轄	-10.4345
午後	-10.4346
放送された	-10.435
の方が	-10.4351
ge	-10.4353
発表された	-10.4355
▁1993	-10.4356
音が	-10.4356
卒業後	-10.4361
ロバート	-10.4363
少ない	-10.4364
家は	-10.4366
上記の	-10.4367
馬鹿	-10.4373
建造	-10.4374
臨時	-10.4378
われた	-10.4378
レル	-10.4379
67	-10.438
プロダクション	-10.4385
そこから	-10.439
なかなか	-10.439
上野	-10.4399
ヘン	-10.44
聞	-10.4404
一家	-10.4407
理事	-10.441
ma	-10.4411
ard	-10.4411
かり	-10.4411
長野県	-10.4413
霧	-10.4415
などと	-10.4419
なぜ	-10.4419
止	-10.4419
左衛門	-10.4425
マッチ	-10.4428
創刊	-10.4428
承認	-10.4429
AC	-10.443
疑	-10.4434
と同	-10.4434
古典	-10.4435
モル	-10.4435
することになった	-10.4437
忍	-10.4439
ウクライナ	-10.4447
東西	-10.4452
堅	-10.4458
長男	-10.4459
注	-10.4459
てい	-10.4463
要請	-10.4466
歴代	-10.4467
暮	-10.447
かかる	-10.447
走り	-10.4471
るため	-10.4472
守備	-10.4475
甘	-10.4475
実際には	-10.4481
97	-10.4482
中止	-10.4483
文明	-10.4488
負	-10.4491
の中には	-10.4493
姿を	-10.4495
状態で	-10.4496
唯一	-10.45
出る	-10.45
ne	-10.4501
高度	-10.4501
1977	-10.4501
数が	-10.4506
政府は	-10.4507
焼き	-10.4508
発達	-10.4513
フィン	-10.4521
歴	-10.4524
▁これら	-10.4526
キャラ	-10.4534
ヴィン	-10.4535
のことである	-10.4539
尻	-10.4539
ふく	-10.4542
しょ	-10.4546
ああ	-10.4548
映	-10.455
うえ	-10.4554
ワイン	-10.4555
憲	-10.4556
単行本	-10.4561
議長	-10.4562
になつて	-10.4562
伊藤	-10.4565
有効	-10.4571
コロ	-10.4581
くれ	-10.4583
▁1991	-10.4584
出された	-10.4585
ブルク	-10.4591
ガイ	-10.4591
ところに	-10.4593
ですよ	-10.4597
最終的に	-10.4597
沿岸	-10.46
審査	-10.4601
温度	-10.4601
卿	-10.4604
を発表	-10.4604
なんだ	-10.4608
並	-10.4612
メー	-10.4612
護衛	-10.4613
ac	-10.4614
消費	-10.4617
全米	-10.4617
載	-10.4619
出来る	-10.4621
上陸	-10.4625
やす	-10.4627
進化	-10.4628
是	-10.463
ゆる	-10.4631
RA	-10.4632
教え	-10.4633
アカデミー	-10.4635
養子	-10.4639
組み	-10.464
アム	-10.4643
再開	-10.4644
首を	-10.4646
事務	-10.4648
以前の	-10.4648
男は	-10.4649
過ぎ	-10.4651
ヘンリー	-10.4654
はなかった	-10.4657
画像	-10.4659
背景	-10.466
世界選手権	-10.466
書かれた	-10.4661
ついて	-10.4661
der	-10.4667
職業	-10.4668
わない	-10.467
行われる	-10.467
イスラエル	-10.4671
判定	-10.4673
ay	-10.4675
といい	-10.4679
宋	-10.4683
大将	-10.4686
ポルトガル	-10.4686
かけた	-10.469
かも知れない	-10.4692
を中心とした	-10.4695
を以て	-10.4695
AR	-10.4695
ie	-10.47
石油	-10.4701
季	-10.4703
は主に	-10.4706
らなかった	-10.4706
ウッド	-10.4712
声で	-10.4717
受賞	-10.4721
ワー	-10.4724
一切	-10.4724
戦闘機	-10.4727
庵	-10.4728
活用	-10.4732
に変更	-10.4734
付属	-10.4738
勘	-10.4739
猿	-10.474
加盟	-10.4742
誰も	-10.4742
暴	-10.4744
絵画	-10.4746
風に	-10.4747
シス	-10.4749
ナル	-10.4751
☆	-10.4751
▁c	-10.4753
が見られる	-10.4756
を発表した	-10.4757
1967	-10.4763
再建	-10.4764
奈良	-10.4764
蓮	-10.4765
北京	-10.4765
したい	-10.4765
79	-10.4773
一緒に	-10.4775
中世	-10.4775
語り	-10.4778
などは	-10.4779
しよう	-10.4783
中には	-10.4787
ヘッド	-10.4787
身を	-10.4788
こともあった	-10.4789
SF	-10.4789
司令官	-10.479
閉鎖	-10.4792
澄	-10.4792
両者	-10.4793
別に	-10.4795
に向けて	-10.4797
旨	-10.4799
害	-10.4799
ER	-10.4802
フェル	-10.4808
その時	-10.4808
助け	-10.4811
律	-10.4812
年頃	-10.4812
やう	-10.4812
テー	-10.4815
防御率	-10.4817
op	-10.4818
用意	-10.4819
浩	-10.4821
ないし	-10.4821
月場所	-10.4821
混	-10.4823
を与える	-10.4824
ですから	-10.4824
リズム	-10.4825
all	-10.4825
穂	-10.4827
アクション	-10.4827
繁	-10.483
おそらく	-10.4833
偽	-10.4834
に相当する	-10.4836
好き	-10.4836
プロデュース	-10.4838
man	-10.4839
を行っていた	-10.484
69	-10.4842
大学院	-10.4842
間もなく	-10.4845
知らない	-10.4845
女王	-10.4852
必ず	-10.4855
といわれる	-10.4857
抜き	-10.4859
の名前	-10.4863
チュー	-10.4869
読者	-10.487
と一緒に	-10.4872
出発	-10.4874
郊外	-10.4877
針	-10.4884
AL	-10.4888
合わせ	-10.4889
居住	-10.489
1964	-10.4894
まって	-10.4898
幹	-10.4898
伸	-10.49
声を	-10.4906
ce	-10.4907
魔法	-10.4908
消	-10.4913
上海	-10.4917
トーク	-10.4919
駅前	-10.492
一致	-10.492
vi	-10.4921
思ひ	-10.4922
連れ	-10.4926
は非常に	-10.4927
少将	-10.4931
刊	-10.4932
分布	-10.4934
遊び	-10.4934
政治的	-10.4937
営業所	-10.4938
が行われている	-10.494
だという	-10.4941
らせ	-10.4942
拝	-10.4943
これから	-10.4945
収入	-10.4946
メール	-10.4948
泥	-10.4949
否定	-10.495
駅から	-10.495
採	-10.495
的には	-10.4955
遅れ	-10.4955
彩	-10.4957
差し	-10.4958
初期の	-10.4958
頃から	-10.4961
傍	-10.4967
こういう	-10.497
上げた	-10.4971
定期	-10.4971
作品は	-10.4974
サブ	-10.498
人である	-10.4984
領土	-10.4984
mi	-10.4986
を使用する	-10.4989
体系	-10.4989
の結果	-10.499
本来	-10.4991
に当たる	-10.4994
無理	-10.4995
バーン	-10.4997
負担	-10.5002
じゅう	-10.5003
資本	-10.5008
申し	-10.501
名で	-10.5011
努力	-10.5013
NA	-10.5016
サポート	-10.5021
いき	-10.5022
書籍	-10.5025
因	-10.5026
死ぬ	-10.5029
▁/	-10.5031
かつた	-10.5032
場合がある	-10.5033
ポート	-10.5036
丹	-10.5036
で初めて	-10.5037
激	-10.5039
梁	-10.5039
者に	-10.504
を果たす	-10.5042
の際に	-10.5043
外部	-10.5046
出来事	-10.5056
スカ	-10.5057
学習	-10.5059
確保	-10.506
▁それが	-10.506
地位	-10.5061
殺害	-10.5061
故郷	-10.5062
▁1989	-10.5063
当然	-10.5065
商人	-10.5067
集中	-10.5067
に伴う	-10.5069
最初	-10.507
単独	-10.507
広場	-10.5072
自分で	-10.5075
ものだった	-10.5075
ストリート	-10.5075
されなかった	-10.5075
ラブ	-10.5075
競馬場	-10.5083
縦	-10.5084
イギリスの	-10.5084
アニメーション	-10.5084
に入って	-10.5088
だけは	-10.5089
秋田	-10.509
させること	-10.5091
外に	-10.5092
大学で	-10.5097
それで	-10.5098
双方	-10.5102
再度	-10.5102
の息子	-10.5104
さんが	-10.5105
観客	-10.5106
交代	-10.511
日本軍	-10.5113
わる	-10.5113
ひら	-10.5115
小さく	-10.5115
°	-10.5115
熊本	-10.5118
を用いる	-10.512
にとっては	-10.5123
場面	-10.5123
ではあるが	-10.5125
後継	-10.5126
袖	-10.5129
日発売	-10.5129
男が	-10.5133
賞を受賞	-10.5134
出た	-10.5135
海上	-10.5135
▁戦後	-10.5136
詰め	-10.5138
黙	-10.5139
1965	-10.5139
話し	-10.514
74	-10.5149
復興	-10.515
ディング	-10.5153
勤	-10.5154
これも	-10.5154
効率	-10.5155
の一種	-10.5156
気候	-10.5158
ツァ	-10.5159
答え	-10.5159
ることができる	-10.5161
束	-10.5163
しようと	-10.5164
デモ	-10.5167
do	-10.5169
アメリカン	-10.517
機種	-10.5174
適	-10.5176
愛称	-10.5176
700	-10.5182
ども	-10.5183
得る	-10.5183
は無い	-10.5191
リード	-10.5192
行って	-10.5193
本名	-10.52
年目	-10.52
四国	-10.5202
才	-10.5203
加藤	-10.5205
開設	-10.5215
にした	-10.5217
さし	-10.5218
MO	-10.522
菜	-10.5223
ちょうど	-10.5223
動画	-10.5224
カリフォルニア州	-10.5227
類似	-10.5231
まち	-10.5233
セー	-10.5234
挙	-10.5234
王子	-10.5235
おき	-10.5235
ふと	-10.5237
ウェル	-10.5239
翌日	-10.5239
突き	-10.5244
巨	-10.5245
塾	-10.5247
亭	-10.5247
フィリピン	-10.525
me	-10.525
写	-10.5255
るべき	-10.5257
ゲイ	-10.5261
ジャンル	-10.5264
承	-10.5264
食事	-10.5264
打撃	-10.5266
離れた	-10.5272
がなく	-10.5273
全長	-10.5273
祝	-10.5275
施行	-10.528
▁1960	-10.5281
予備	-10.5282
US	-10.5283
EN	-10.5283
を目指す	-10.5283
していった	-10.5287
興味	-10.5287
記者	-10.5288
プロレス	-10.529
移籍	-10.5292
ニング	-10.5293
▁身長	-10.5298
謎	-10.5298
所に	-10.5299
パイロット	-10.53
を作り	-10.5303
項目	-10.5303
AM	-10.5304
鷹	-10.5305
含まれ	-10.5306
スコットランド	-10.5306
フィー	-10.5307
溝	-10.5308
ようやく	-10.5311
im	-10.5325
芝居	-10.5331
通行	-10.5334
炭	-10.5341
南側	-10.5341
資源	-10.5341
原則	-10.5342
全員	-10.5344
やら	-10.5345
置き	-10.5347
▁to	-10.5348
かし	-10.535
必要がある	-10.5354
テロ	-10.5357
学問	-10.5362
ぶん	-10.5364
作目	-10.5368
に生まれる	-10.5369
ウン	-10.5373
線路	-10.5378
協	-10.538
経緯	-10.538
cc	-10.5381
音声	-10.5383
どこか	-10.5383
ジム	-10.5384
推薦	-10.5385
援助	-10.5388
であります	-10.5389
日現在	-10.539
社会主義	-10.5392
鎌倉	-10.5394
廃止された	-10.5394
趣味	-10.5395
顕	-10.5395
競争	-10.5396
どの	-10.5396
制定	-10.5396
シカゴ	-10.5397
当て	-10.5397
グロ	-10.5398
チームは	-10.54
電鉄	-10.54
彼に	-10.5401
取材	-10.5402
籍	-10.5403
先行	-10.5403
改修	-10.5403
明か	-10.5403
ut	-10.5403
するも	-10.5404
少なくとも	-10.5412
モノ	-10.5419
ドライバー	-10.5419
過程	-10.5421
▁Re	-10.5421
ィ	-10.5422
下で	-10.5422
スコ	-10.5423
に行く	-10.5424
モーター	-10.5426
という言葉	-10.5428
然と	-10.5429
AS	-10.5429
織	-10.543
フランス語	-10.543
分裂	-10.5433
予	-10.5434
井上	-10.5435
十分	-10.5435
側は	-10.5437
組み合わせ	-10.5437
進んで	-10.544
いって	-10.544
前年	-10.544
▁以後	-10.5441
吹き	-10.5446
新人	-10.5449
ッと	-10.5449
サム	-10.545
流通	-10.5458
済	-10.546
司法	-10.5461
分岐	-10.5462
なあ	-10.5463
一定	-10.5464
入口	-10.5465
興行	-10.5466
徹	-10.5469
▁アメリカ	-10.547
イラスト	-10.5471
は何	-10.5472
継ぎ	-10.5475
直後	-10.5476
暗殺	-10.5477
蓋	-10.5478
ゆう	-10.5479
涼	-10.5481
主体	-10.5483
反乱	-10.5483
吸	-10.5484
▁U	-10.5484
遺伝子	-10.5487
ベトナム	-10.5492
伝統	-10.5493
大佐	-10.5497
▁St	-10.5497
io	-10.5498
コスト	-10.5499
ステークス	-10.5502
殺し	-10.5503
との関係	-10.5505
も存在する	-10.5507
72	-10.5508
攻	-10.551
深夜	-10.551
01	-10.5511
を出した	-10.5522
學	-10.5523
ill	-10.5523
に移籍	-10.5526
泣き	-10.5527
いわ	-10.5528
を与え	-10.5528
大手	-10.5531
ーナ	-10.5533
なくなり	-10.5536
▁そんな	-10.5537
飾	-10.5538
好きな	-10.5539
執	-10.5539
部に	-10.5542
しまった	-10.5543
わたくし	-10.5544
神話	-10.5544
AN	-10.5546
ロング	-10.5549
道を	-10.5562
修道院	-10.5566
込	-10.557
とある	-10.5571
こうした	-10.5573
イヤー	-10.5575
ヒト	-10.5575
詰	-10.5576
社会的	-10.5577
を持っていた	-10.5578
があるが	-10.5584
渡辺	-10.5585
ビッグ	-10.5586
象	-10.5593
帰還	-10.5595
するまで	-10.5596
ヴィー	-10.5597
正面	-10.5597
AV	-10.5598
1966	-10.5603
フジテレビ	-10.5604
石川	-10.5605
を始める	-10.5607
合同	-10.561
プロ野球	-10.561
自体	-10.5611
ダウン	-10.5614
当駅	-10.5614
金を	-10.5615
委員長	-10.5615
ロボット	-10.5617
意味で	-10.5623
ネイ	-10.5623
することは	-10.5629
とお	-10.5629
福島	-10.563
家臣	-10.5632
加工	-10.5635
庫	-10.5637
拠	-10.5637
リリースされた	-10.5639
同時	-10.564
続けた	-10.5641
ていて	-10.5642
需要	-10.5642
勤め	-10.5645
という意味	-10.5647
菓子	-10.5654
南西	-10.5657
オリ	-10.5659
ウィーン	-10.5663
▁二	-10.5664
けた	-10.5668
前述の	-10.5669
1930	-10.5671
アート	-10.5671
試合で	-10.5674
ステーション	-10.5676
アクセス	-10.5676
來	-10.5686
▁そうして	-10.5688
悪化	-10.5689
旅客	-10.5689
出て	-10.5692
▁そう	-10.5692
▁ここで	-10.5692
今度は	-10.5693
ート	-10.5694
なっている	-10.5694
ずる	-10.5695
虚	-10.5696
財産	-10.5706
支那	-10.5706
曹	-10.5707
1940	-10.5707
理想	-10.5711
或る	-10.5712
功績	-10.5714
幹部	-10.5719
文章	-10.5719
往復	-10.5722
しゅう	-10.5723
桁	-10.5723
120	-10.5724
つてゐた	-10.5724
今後	-10.5727
待ち	-10.573
福岡県	-10.5732
ジャズ	-10.5733
▁s	-10.5734
篇	-10.5734
したという	-10.5741
足を	-10.5741
染	-10.5742
嫁	-10.5742
DS	-10.5743
上下	-10.5745
無料	-10.5745
は全て	-10.5748
時から	-10.5751
マスター	-10.5752
新幹線	-10.5754
逮捕	-10.5757
を見せ	-10.576
取った	-10.5761
開通	-10.5763
使われ	-10.5765
坐	-10.5767
たん	-10.5767
症状	-10.577
の姿	-10.5772
希	-10.5773
池田	-10.5777
日付	-10.5781
トゥー	-10.5781
なくて	-10.5783
ようとする	-10.5783
アメリカ軍	-10.5784
何を	-10.5786
新規	-10.5787
爆	-10.5788
てん	-10.5792
ベルギー	-10.5792
_1	-10.5793
1944	-10.5801
に応じて	-10.5807
▁a	-10.5807
一帯	-10.5811
東日本	-10.5811
いくつか	-10.5814
であらう	-10.5815
しかも	-10.5815
毎週	-10.5816
として知られる	-10.5817
航	-10.5818
新潟	-10.582
歩き	-10.582
自転車	-10.5821
漢字	-10.5821
払	-10.5822
言及	-10.5823
されると	-10.5824
人たち	-10.5828
モンゴル	-10.5828
係	-10.583
バッハ	-10.5836
数学	-10.5836
狭	-10.5837
ことはない	-10.5838
73	-10.5839
祭り	-10.584
測定	-10.584
公開された	-10.5841
柔道	-10.5841
伏	-10.5842
るか	-10.5843
に向かって	-10.5843
編曲	-10.5844
プラン	-10.5844
コンビ	-10.5847
女は	-10.5847
強制	-10.5849
殆ど	-10.585
DE	-10.5852
送り	-10.5854
伯爵	-10.5856
都合	-10.586
軍隊	-10.586
同士	-10.5861
酔	-10.5861
▁東	-10.5863
そのような	-10.5865
が異なる	-10.5866
負傷	-10.5869
▁北	-10.587
者を	-10.5872
個体	-10.5873
固有	-10.5876
審	-10.5877
デンマーク	-10.5878
であったため	-10.5879
ことだ	-10.5879
巨人	-10.5879
岐阜県	-10.5879
乃	-10.588
IS	-10.5881
忘れ	-10.5885
部品	-10.5886
5000	-10.5887
この時	-10.5888
体重	-10.5888
確立	-10.589
珍	-10.589
ぢや	-10.5891
棚	-10.5893
とり	-10.5896
インチ	-10.5896
ミュージシャン	-10.5897
嫌	-10.5899
を使った	-10.5899
シーズンは	-10.5901
二階	-10.5903
上がり	-10.5904
かす	-10.591
ジャンプ	-10.5911
歩いて	-10.5917
あげ	-10.592
移民	-10.5925
89	-10.5925
がわ	-10.5926
那	-10.5926
枚目のシングル	-10.5933
縮	-10.5933
祐	-10.5934
カム	-10.5939
います	-10.5943
災害	-10.5943
変換	-10.5945
噂	-10.5945
無い	-10.5945
もん	-10.5946
記号	-10.5947
作品を	-10.5947
ものに	-10.5949
絶対	-10.5949
るために	-10.5952
公認	-10.5955
気に	-10.5956
誘導	-10.5958
▁p	-10.5958
資	-10.596
別れ	-10.5961
かない	-10.5963
がい	-10.5963
様な	-10.5966
94	-10.5967
160	-10.5968
軍が	-10.5977
死去した	-10.5978
IT	-10.5979
を使う	-10.5985
1963	-10.5987
パイ	-10.5989
アイテム	-10.5991
共産党	-10.5995
マラ	-10.5995
實	-10.5996
ドラフト	-10.6
あって	-10.6003
岡山	-10.6006
の存在	-10.6008
テレビアニメ	-10.6013
武蔵	-10.6016
前作	-10.6016
はもう	-10.6018
卓	-10.6019
監視	-10.6023
ぢ	-10.6024
ときは	-10.6024
直前	-10.6024
ha	-10.6026
疑問	-10.6026
▁1988	-10.6027
顧問	-10.603
カトリック	-10.6032
西武	-10.6037
うつ	-10.6038
可能性がある	-10.6038
中将	-10.6041
北朝鮮	-10.6044
仕事を	-10.6044
自殺	-10.6051
ルト	-10.6055
駅舎	-10.6057
合格	-10.6059
コス	-10.606
▁このとき	-10.6066
と思って	-10.6066
番目の	-10.6069
ロウ	-10.6069
大名	-10.6072
できず	-10.6076
ate	-10.608
ant	-10.6082
だけが	-10.6083
彼らは	-10.6086
こととなった	-10.6086
学術	-10.6087
推定	-10.6087
埋め	-10.6092
▁もし	-10.6092
グラン	-10.6093
どうした	-10.6093
誤	-10.6093
は日本	-10.6094
優れた	-10.6096
最近	-10.6096
以外に	-10.6097
探偵	-10.6098
水を	-10.61
来日	-10.6101
世帯	-10.6101
南北	-10.6102
現役	-10.6102
吉は	-10.6104
発明	-10.6105
頭を	-10.6105
誰か	-10.6106
犯人	-10.6106
ヤー	-10.6106
方言	-10.6109
恋愛	-10.611
十五	-10.6112
ON	-10.6114
を示した	-10.6114
と言った	-10.6115
伝承	-10.6115
自宅	-10.6116
若者	-10.6117
EC	-10.6118
襲撃	-10.6119
ni	-10.612
と言われている	-10.612
沙	-10.6121
新潟県	-10.6122
は大	-10.6124
かかった	-10.6131
柏	-10.6134
ビア	-10.6134
の場合は	-10.6136
しているが	-10.6136
ボス	-10.6144
出来ない	-10.6145
ell	-10.6145
成分	-10.6145
方に	-10.6152
ヌー	-10.6153
西日本	-10.6155
使用されている	-10.6158
夕方	-10.6159
後方	-10.6159
マイケル	-10.616
にお	-10.6162
さあ	-10.6166
終わり	-10.6169
両編成	-10.617
ぽ	-10.617
徳川	-10.6171
見解	-10.6171
1962	-10.6174
の名称	-10.6175
じゃない	-10.6179
違	-10.618
▁1987	-10.6181
近郊	-10.6184
に従って	-10.6189
自社	-10.6189
例として	-10.619
エレ	-10.6191
ロール	-10.6191
区分	-10.6192
靴	-10.6193
フラン	-10.6194
一連の	-10.6194
用に	-10.6195
措置	-10.6197
日記	-10.6197
大分	-10.62
取締役	-10.6202
使用する	-10.6202
裂	-10.6203
▁f	-10.6203
レコーディング	-10.6204
コンセプト	-10.6206
舌	-10.6207
ならず	-10.6208
台車	-10.6209
民主	-10.6209
迷	-10.6211
選抜	-10.6212
GA	-10.6213
を担当した	-10.6215
運命	-10.6215
ゲー	-10.6218
補助	-10.622
登場人物	-10.6223
一旦	-10.6228
漁	-10.623
▁こうして	-10.6231
階段	-10.6235
III	-10.6236
筈	-10.6236
チャールズ	-10.6236
豆	-10.6238
つける	-10.6241
分解	-10.6241
こく	-10.6242
フェン	-10.6243
三つ	-10.6244
瞬間	-10.6245
捕虜	-10.6249
前から	-10.6251
整理	-10.6256
買収	-10.6256
資産	-10.6257
いろいろ	-10.6258
ta	-10.626
四郎	-10.6261
スピード	-10.6262
あたし	-10.6266
砦	-10.6267
スポンサー	-10.6267
烈	-10.627
平野	-10.627
コミュニティ	-10.627
錦	-10.6274
と言われる	-10.6277
の中でも	-10.6277
ヘイ	-10.6278
料金	-10.628
mo	-10.628
がその	-10.6282
際には	-10.6283
離脱	-10.6284
イラン	-10.6288
中山	-10.6291
鑑	-10.6292
ポスト	-10.6295
琴	-10.6296
勉強	-10.6298
取る	-10.6299
ネタ	-10.63
抜け	-10.6302
ストラ	-10.6303
ところへ	-10.6305
84	-10.6307
即ち	-10.6309
に終わった	-10.6309
木村	-10.6309
逸	-10.6309
の戦いで	-10.6312
ホワイト	-10.6314
一般に	-10.6317
▁当初	-10.6318
江戸時代	-10.6319
たため	-10.6319
怒	-10.632
づけ	-10.6323
大衆	-10.6324
発売された	-10.6326
を利用して	-10.6326
に立ち	-10.6327
上映	-10.6329
羊	-10.633
性を	-10.6331
壇	-10.6331
を歴任	-10.6334
了	-10.6335
晋	-10.6342
人々は	-10.6343
得意	-10.6344
ホル	-10.6345
1947	-10.6347
巨大な	-10.6348
いていた	-10.635
パート	-10.6352
起こ	-10.6356
設立された	-10.6356
寮	-10.6357
の中では	-10.6357
でもない	-10.6358
火山	-10.6358
偏	-10.6359
上記	-10.636
線が	-10.636
ード	-10.636
順位	-10.6363
ぐらい	-10.6366
売却	-10.6367
達は	-10.6372
歩兵	-10.6373
前半	-10.6374
に加えて	-10.6376
滑	-10.6377
▁かつて	-10.6379
叔父	-10.6379
に基づき	-10.6379
贈	-10.6386
6,	-10.6389
スパイ	-10.6391
くなる	-10.6394
MP	-10.6395
宣伝	-10.64
メント	-10.64
合意	-10.64
象徴	-10.6402
拳	-10.6402
使われた	-10.6405
満足	-10.6408
怪我	-10.6409
スキ	-10.6412
るような	-10.6412
為に	-10.6412
投入	-10.6413
以外	-10.6416
グレ	-10.6417
を開始	-10.6423
上流	-10.6426
緊急	-10.6427
頭部	-10.6427
途中で	-10.643
かれた	-10.643
クリア	-10.6432
直後に	-10.6433
第二次世界大戦	-10.6433
訪	-10.6437
調べ	-10.6439
イス	-10.6444
大字	-10.6449
当該	-10.645
▁1986	-10.6451
世が	-10.6459
座席	-10.646
独立した	-10.6461
態	-10.6461
一定の	-10.6461
が始まった	-10.6463
ab	-10.6465
UN	-10.6466
内容は	-10.6469
東映	-10.6469
ジェームズ	-10.6473
敗北	-10.6474
に基づいて	-10.6478
レオ	-10.6481
さが	-10.6482
干	-10.65
あき	-10.65
で放送された	-10.65
ジェット	-10.6501
知られている	-10.6504
ヴィル	-10.6505
司令部	-10.6505
1961	-10.6507
北西	-10.6508
込まれ	-10.6509
ment	-10.6512
修理	-10.6514
ラグビー	-10.6514
ライフ	-10.6515
83	-10.6524
時々	-10.6526
甲板	-10.6527
王朝	-10.6527
隅	-10.6527
フィンランド	-10.6528
誘	-10.6529
フランク	-10.653
風景	-10.6531
らと	-10.6532
シート	-10.6539
始める	-10.6541
容易に	-10.6544
詳細は	-10.6544
他人	-10.6545
感覚	-10.6549
ローズ	-10.6551
宏	-10.6551
抗議	-10.6558
鐘	-10.656
ざる	-10.6562
を最後に	-10.6565
利用者	-10.6565
なって	-10.6565
圧力	-10.6566
芽	-10.6566
熟	-10.6567
きゅう	-10.6568
用途	-10.657
測	-10.6575
怪	-10.6576
実際の	-10.658
から発売された	-10.6585
リアン	-10.6586
飲み	-10.6586
サウンド	-10.6588
頃に	-10.6588
であっても	-10.659
▁1985	-10.659
腸	-10.6591
人も	-10.6593
心に	-10.6593
大賞	-10.6596
大変	-10.6597
社員	-10.6597
言葉を	-10.6598
損	-10.6599
はすべて	-10.66
実績	-10.66
ライセンス	-10.66
ムー	-10.6601
じん	-10.6602
だん	-10.6605
81	-10.6608
ブラウン	-10.6617
想	-10.6621
の多くは	-10.6621
1946	-10.6623
呂	-10.6627
ものではない	-10.6633
統	-10.6634
控え	-10.6636
訪問	-10.6637
方を	-10.6637
を進め	-10.6638
てる	-10.664
ゼン	-10.664
現在でも	-10.6641
コート	-10.6643
ようとした	-10.6643
ブック	-10.6644
MI	-10.6646
肥	-10.6646
▁彼らは	-10.6646
活動を	-10.6648
にいる	-10.6648
時点	-10.6649
やつ	-10.665
ローカル	-10.6651
剛	-10.6651
ユース	-10.6651
間で	-10.6655
日本代表	-10.6659
一般的に	-10.6661
を描く	-10.6661
創作	-10.6663
蘇	-10.6665
明日	-10.6669
農民	-10.6669
に入	-10.6671
するようになった	-10.6671
容	-10.6672
当局	-10.6673
在住	-10.6676
ぜん	-10.6679
ME	-10.6682
ES	-10.6682
唱	-10.6683
好い	-10.6683
年代から	-10.6684
さら	-10.6685
任命	-10.6685
を開催	-10.6686
銀河	-10.6688
大阪市	-10.669
バーグ	-10.6691
免許	-10.6693
を失った	-10.6696
ていなかった	-10.6696
がこの	-10.6696
▁The	-10.6698
▁すなわち	-10.6698
安打	-10.6698
それでも	-10.67
せて	-10.6703
250	-10.6703
毎	-10.6704
添	-10.6704
するように	-10.6707
標	-10.6707
頂	-10.6707
ディスク	-10.6709
時代には	-10.671
なさ	-10.671
市街地	-10.6711
世に	-10.6715
られない	-10.6717
感染	-10.6718
五十	-10.6721
を取る	-10.6721
ボディ	-10.6723
発足	-10.6726
ドイツ語	-10.6726
マリー	-10.6729
唯	-10.6729
ion	-10.673
暮らし	-10.6731
鋼	-10.6732
平次	-10.6736
ぼう	-10.6737
RI	-10.6739
をリリース	-10.674
八幡	-10.6745
一種の	-10.6747
▁それに	-10.6747
ッカ	-10.6749
続いて	-10.675
茨城県	-10.6751
脱退	-10.6752
▁これを	-10.6753
らう	-10.6755
っぱ	-10.6759
そうに	-10.6759
すっかり	-10.676
悪魔	-10.6761
ものもある	-10.6762
ゼル	-10.6763
えない	-10.6764
先端	-10.6764
航海	-10.6764
二重	-10.6765
ウー	-10.6765
怒り	-10.6766
1948	-10.6767
収容	-10.6768
子ども	-10.6769
巡	-10.677
かみ	-10.6771
残った	-10.6772
キロ	-10.6773
濃	-10.6774
に大きな	-10.6775
幸福	-10.6782
敗退	-10.6782
ようである	-10.6782
森林	-10.6785
辰	-10.6786
しかった	-10.6789
救	-10.6789
担	-10.6793
放送局	-10.6794
殺人	-10.6795
を得	-10.6797
ヤード	-10.6798
▁その後も	-10.6798
財	-10.6801
ハッ	-10.6802
IP	-10.6802
火災	-10.6804
成果	-10.6805
つと	-10.6806
攻め	-10.6807
株式	-10.6807
明らか	-10.6808
登場する	-10.681
演技	-10.6811
じて	-10.6812
解析	-10.6812
に対しては	-10.6815
に選ばれた	-10.6817
いました	-10.6822
▁だから	-10.6824
ティス	-10.6825
アマチュア	-10.6827
触	-10.6828
原理	-10.6831
ることになった	-10.6834
鍵	-10.6835
91	-10.6835
韓	-10.6835
部は	-10.6838
眞	-10.6838
踊り	-10.6839
日に行われた	-10.684
したものである	-10.6849
効	-10.6852
相撲	-10.6852
だし	-10.6853
を獲得	-10.6855
ケット	-10.6861
手術	-10.6861
欲	-10.6862
CS	-10.6864
ヨー	-10.6866
原題	-10.687
ッター	-10.6872
経過	-10.6872
ソウル	-10.6873
製の	-10.6873
茎	-10.6877
午前	-10.6882
恐怖	-10.6882
到着	-10.6883
j	-10.6883
いゝ	-10.6886
4,	-10.6886
哲	-10.6887
始	-10.6889
の地位	-10.6893
研	-10.6893
年以上	-10.6895
端末	-10.6898
懐	-10.6899
ってきた	-10.69
だれ	-10.6901
公式サイト	-10.6902
向う	-10.6905
ドール	-10.6906
どうか	-10.6907
エース	-10.6908
傘下	-10.6913
秦	-10.6915
08	-10.6916
経路	-10.6918
が大きく	-10.6919
河内	-10.692
国会	-10.6921
1949	-10.6927
しまい	-10.6929
少数	-10.693
は全く	-10.693
辻	-10.693
世紀の	-10.6935
らし	-10.6935
郵便局	-10.6938
▁父	-10.6938
立候補	-10.694
困難	-10.6941
えん	-10.6942
扇	-10.6942
唄	-10.6944
ります	-10.6944
大いに	-10.6945
脱出	-10.6945
優先	-10.6947
ボード	-10.6947
磯	-10.6948
雇用	-10.6955
割合	-10.6955
自分は	-10.6956
を除き	-10.6958
原子	-10.6959
ホン	-10.6959
証言	-10.6962
を代表する	-10.6969
大使	-10.6971
われる	-10.6972
わけではない	-10.6972
名称は	-10.6973
主題	-10.6975
が開始された	-10.6975
となったが	-10.6976
対抗	-10.698
力が	-10.6982
暗い	-10.6983
バリ	-10.6984
に向かう	-10.6985
聞いた	-10.6985
するよう	-10.6986
近隣	-10.6989
を示し	-10.6992
まわ	-10.6992
全部	-10.6993
ツー	-10.6994
ハワイ	-10.6998
創業	-10.6999
はっきり	-10.7
リーグ戦	-10.7001
水素	-10.7004
おく	-10.7005
粒子	-10.7006
に至った	-10.701
俗	-10.701
発音	-10.7012
ウイルス	-10.7014
BO	-10.7015
福島県	-10.7018
消防	-10.7018
テニス	-10.7018
ヴェー	-10.7019
北東	-10.702
塁	-10.7021
3000	-10.7023
1943	-10.7023
訴訟	-10.7026
議席	-10.7026
離婚	-10.7028
消滅	-10.7028
で最も	-10.7029
枕	-10.7029
やった	-10.703
に合わせて	-10.7031
てくる	-10.7031
支部	-10.7031
英雄	-10.7032
接触	-10.7033
入力	-10.7035
冒険	-10.7035
します	-10.7037
県道	-10.7038
を守る	-10.7039
の意味	-10.7039
ことによって	-10.704
に次ぐ	-10.704
燈	-10.7044
を認め	-10.7045
下げ	-10.7045
ti	-10.7045
実際	-10.7046
識	-10.7046
を見ると	-10.7047
ラウンド	-10.7048
リウス	-10.7049
巻き	-10.705
ジャケット	-10.705
ウォー	-10.7051
自動車道	-10.7052
に見	-10.7053
早い	-10.7053
振興	-10.7056
キャンプ	-10.7057
1942	-10.7058
人工	-10.7062
バトル	-10.7063
は以下の通り	-10.7069
裸	-10.707
続編	-10.707
當	-10.707
子を	-10.7072
って来た	-10.7075
察	-10.7075
じゃないか	-10.7081
ラウ	-10.7082
ンス	-10.7084
▁あの	-10.709
きました	-10.7092
カレッジ	-10.7093
per	-10.7093
賞を受賞した	-10.7094
ex	-10.7094
ずっと	-10.7097
炉	-10.7098
92	-10.7099
貝	-10.7099
専門学校	-10.7099
アッ	-10.7102
1959	-10.7103
▁株式会社	-10.7105
再現	-10.7105
地形	-10.7106
うん	-10.7108
アルゼンチン	-10.7108
いよいよ	-10.711
▁その後は	-10.7111
MC	-10.7112
フロント	-10.7116
て居る	-10.7118
見れば	-10.7119
偶然	-10.7119
敷地	-10.7126
進歩	-10.7127
ウム	-10.7127
替	-10.7133
もり	-10.7133
近年	-10.7133
胡	-10.7135
ud	-10.7136
特性	-10.7136
硬	-10.7137
▁もう	-10.7139
ですが	-10.7141
考えて	-10.7142
ゼロ	-10.7143
によっては	-10.7145
リチャード	-10.7146
▁1945	-10.7146
呼	-10.7149
授業	-10.7151
使われている	-10.7157
操縦	-10.7157
寧	-10.7159
でせう	-10.7159
のもと	-10.716
総督	-10.7164
両方	-10.7164
槍	-10.7165
明け	-10.7167
する場合	-10.7168
が無い	-10.7168
最優秀	-10.7169
クロー	-10.7171
根拠	-10.7172
空襲	-10.7175
意図	-10.7176
以前に	-10.7177
選定	-10.7178
げん	-10.7179
コレクション	-10.7179
併	-10.7183
保守	-10.7184
再編	-10.7184
陸上	-10.7186
駆動	-10.7188
しなければならない	-10.719
くら	-10.719
綿	-10.7192
うまく	-10.7193
化する	-10.7194
ゴールド	-10.7194
甲斐	-10.7196
ペイ	-10.7198
1958	-10.7199
と言い	-10.7201
不可能	-10.7203
アド	-10.7206
未だ	-10.7209
披露	-10.721
平日	-10.721
球場	-10.7213
黄色	-10.7214
本体	-10.7214
劣	-10.7214
に参加し	-10.7214
親分	-10.7214
考へ	-10.722
歴史的	-10.7221
彼等	-10.7224
酵素	-10.7225
最新	-10.7225
嶋	-10.7227
ハート	-10.7229
を与えた	-10.7229
エリ	-10.7234
国際空港	-10.7234
メッセージ	-10.7234
天下	-10.7235
防御	-10.7238
言って	-10.7239
警備	-10.724
致	-10.7241
連結	-10.7245
▁西	-10.7247
要因	-10.7247
磁	-10.7252
▁1984	-10.7253
ゐた	-10.7253
応用	-10.7253
課題	-10.7255
盛り	-10.7256
さと	-10.7257
地図	-10.7258
した場合	-10.7258
それも	-10.7258
ニック	-10.7264
全域	-10.7265
を出す	-10.7266
事で	-10.7268
捨て	-10.7269
PA	-10.7269
TE	-10.727
1955	-10.727
まれた	-10.7271
1941	-10.7272
があったが	-10.7272
死亡した	-10.7274
局長	-10.7274
世紀に	-10.7275
女房	-10.7275
はじめて	-10.7275
川崎	-10.7279
応援	-10.7281
山城	-10.7283
るなど	-10.7284
中央部	-10.7285
スー	-10.7287
そのうち	-10.7287
ぴ	-10.7288
ているが	-10.7288
新田	-10.7291
向けに	-10.7292
本当に	-10.7293
バイパス	-10.7295
通常の	-10.7297
懸	-10.7299
防止	-10.7299
文芸	-10.7302
三菱	-10.7303
▁他の	-10.7303
信頼	-10.7304
もあって	-10.7304
代替	-10.7305
たこと	-10.7305
ノス	-10.7306
年シーズン	-10.7306
ボタン	-10.7308
がん	-10.7308
還	-10.7315
グランド	-10.7315
されたもの	-10.7317
提出	-10.7317
続け	-10.7319
ルド	-10.7322
スミス	-10.7323
教員	-10.7324
作られた	-10.7329
を打ち	-10.7329
樣	-10.733
せた	-10.7336
僅か	-10.7339
海峡	-10.734
糖	-10.734
オート	-10.7341
楊	-10.7342
ボーカル	-10.7347
質問	-10.7347
マルチ	-10.7352
ho	-10.7353
味方	-10.7354
危	-10.7356
育て	-10.7356
献	-10.7357
心理	-10.7359
に比べて	-10.736
1956	-10.7364
慎	-10.7367
UEFA	-10.7367
権限	-10.7371
ビール	-10.7372
場合に	-10.7374
名義	-10.7377
を含め	-10.7378
トーナメント	-10.738
多少	-10.738
レール	-10.738
ーニ	-10.7382
古くから	-10.7385
ビュー	-10.7385
年後の	-10.7389
考	-10.739
後ろ	-10.739
やかな	-10.7391
ひどく	-10.7392
1920	-10.7394
人口は	-10.7395
閣	-10.7395
ものとして	-10.7395
みて	-10.7396
戦艦	-10.7396
のみが	-10.7398
ギー	-10.7401
大隊	-10.7404
くり	-10.7404
命名	-10.7405
ガンダム	-10.7405
すこと	-10.7405
するか	-10.7407
と語っている	-10.741
みた	-10.741
メス	-10.7412
警	-10.7415
奉行	-10.7416
フォル	-10.7416
動か	-10.7416
に変更された	-10.7417
時代から	-10.7418
若干	-10.7419
田舎	-10.742
ry	-10.7422
BA	-10.7426
朗	-10.7427
son	-10.7431
ナス	-10.7432
長野	-10.7432
信長	-10.7438
開業した	-10.7439
ub	-10.7441
号機	-10.7441
ボート	-10.7442
枚目	-10.7444
と思い	-10.7447
ers	-10.7448
淡	-10.7451
婦	-10.7451
家督	-10.7453
葬	-10.7453
全体の	-10.7455
私立	-10.7456
を求め	-10.7456
▁ちなみに	-10.7457
灰	-10.7458
気持ち	-10.7461
癖	-10.7462
中華人民共和国	-10.7462
聞いて	-10.7465
天文	-10.7465
譲渡	-10.7468
本土	-10.747
ag	-10.7472
になつた	-10.7476
月現在	-10.7477
北方	-10.7478
年の第	-10.7478
上がった	-10.748
いか	-10.748
最低	-10.748
直線	-10.7482
▁1983	-10.7484
中心部	-10.7484
と呼ばれている	-10.7485
司会	-10.7487
頬	-10.7491
鈴	-10.7491
特許	-10.7491
確定	-10.7493
面白い	-10.7498
ストン	-10.7498
高級	-10.7499
he	-10.7504
▁ポジションは	-10.7504
HO	-10.7507
煮	-10.7511
ロゴ	-10.7512
フロ	-10.7512
キュー	-10.7515
ってしまった	-10.7515
っていない	-10.7516
バート	-10.752
笛	-10.7521
方向に	-10.7521
に分類される	-10.7522
ノルウェー	-10.7522
〇	-10.7523
くなった	-10.7525
されてきた	-10.7525
教室	-10.7525
私に	-10.7526
正式	-10.7527
口に	-10.7527
1952	-10.7529
ニュ	-10.753
行列	-10.753
いと	-10.7531
大人	-10.7531
くん	-10.7536
基盤	-10.7537
82	-10.7537
自民党	-10.7541
歳以上	-10.7545
育	-10.7549
ぼく	-10.755
打点	-10.7553
日常	-10.7555
に入社	-10.7555
ロイ	-10.7556
com	-10.7562
▁僕は	-10.7565
禅	-10.7566
スカイ	-10.7566
インターチェンジ	-10.7567
やる	-10.7567
互いに	-10.7567
▁for	-10.7569
架	-10.7571
時代は	-10.7572
聖書	-10.7575
ありません	-10.7578
鶏	-10.7581
秀吉	-10.7583
回衆議院議員総選挙	-10.7587
はまた	-10.759
人数	-10.7592
三重県	-10.7592
知らず	-10.7594
に貢献した	-10.7594
身分	-10.7599
司馬	-10.7601
申請	-10.7604
やすく	-10.7604
せずに	-10.7605
者たち	-10.7606
北米	-10.7608
ヤング	-10.761
▁本作	-10.761
ian	-10.7612
降格	-10.7612
をとる	-10.7613
Windows	-10.7614
倒れ	-10.7614
を結成	-10.7616
を使用した	-10.7617
月刊	-10.7617
と述べた	-10.7619
AD	-10.7619
はこれ	-10.762
氏が	-10.762
いふ	-10.7623
主導	-10.7624
DA	-10.7624
ものか	-10.7625
用いられている	-10.7626
及	-10.7627
大会で	-10.7632
リエ	-10.7633
なるほど	-10.7633
キャンパス	-10.7634
どうしても	-10.7634
評判	-10.764
マグ	-10.7641
[#	-10.7642
クラシック	-10.7644
滞在	-10.7644
れない	-10.7644
海洋	-10.7645
解除	-10.7647
厳しい	-10.7648
非難	-10.7649
を除いて	-10.7652
ファッション	-10.7654
に乗り	-10.7657
を迎えた	-10.7657
コム	-10.7659
存続	-10.7659
が多かった	-10.7663
緒	-10.7664
駐	-10.7665
にあたって	-10.7665
損傷	-10.7667
ようだ	-10.7667
ショップ	-10.7669
立って	-10.7669
淵	-10.7674
うか	-10.7674
上がる	-10.7675
以前は	-10.768
つぶ	-10.7681
例外	-10.7683
始まり	-10.7684
者として	-10.7689
ポジション	-10.7691
ないように	-10.7692
か月	-10.7693
獄	-10.7698
十郎	-10.77
》	-10.77
助手	-10.77
違う	-10.7705
早稲田大学	-10.7707
凝	-10.7707
すぎ	-10.7708
飛行機	-10.7708
《	-10.7709
鹿児島	-10.771
指揮官	-10.771
1954	-10.7712
不思議な	-10.7714
位で	-10.7715
アレ	-10.7716
メガ	-10.7717
レーダー	-10.7719
挨拶	-10.7724
こんで	-10.7726
嵐	-10.7728
ピア	-10.7729
キャスト	-10.7729
死んで	-10.7731
求	-10.7731
思った	-10.7731
拒否	-10.7734
sh	-10.7736
▁1950	-10.7738
テーブル	-10.7744
鉱山	-10.7746
ええ	-10.7747
る事	-10.7749
事例	-10.7749
るという	-10.7749
化し	-10.7754
ウィル	-10.7754
訴	-10.7757
ブーム	-10.7757
郭	-10.7757
に沿って	-10.7759
鎖	-10.776
者である	-10.7762
抱	-10.7767
憎	-10.777
みや	-10.7774
弦	-10.7774
和田	-10.7775
ボックス	-10.7775
携帯電話	-10.7776
僕の	-10.7777
なしに	-10.778
返し	-10.7782
は現在	-10.7782
の大半	-10.7783
で優勝	-10.7784
天井	-10.7785
をはじめとする	-10.7786
チェン	-10.7786
しりつ	-10.7787
1953	-10.7791
佳	-10.7792
刃	-10.7794
回戦	-10.7795
に含まれる	-10.7796
松平	-10.7796
中期	-10.7797
立った	-10.7797
om	-10.7799
壮	-10.7802
上げて	-10.7802
享	-10.7803
切った	-10.7804
その後も	-10.7805
面で	-10.7807
に所属する	-10.781
ターン	-10.7812
福祉	-10.7813
自身も	-10.7814
170	-10.7814
なれば	-10.7814
魚雷	-10.7822
▁父は	-10.7822
パターン	-10.7825
敗戦	-10.7825
容易	-10.7826
正しい	-10.783
SD	-10.7833
室内	-10.7835
ミング	-10.7837
が設置されている	-10.7838
93	-10.7838
率は	-10.7841
田村	-10.7841
▁けれども	-10.7841
質量	-10.7842
に戻る	-10.7844
習慣	-10.7844
収集	-10.7845
age	-10.7846
紛争	-10.7847
にする	-10.7847
構築	-10.7847
広島県	-10.7848
パフォーマンス	-10.7849
そうした	-10.7849
山地	-10.785
大学教授	-10.785
ラント	-10.785
喰	-10.7852
届け	-10.7853
創造	-10.7854
亡命	-10.7855
乗客	-10.7855
すみ	-10.7859
ベラ	-10.786
主題歌	-10.786
せられた	-10.7863
の如く	-10.7867
愚	-10.7868
投稿	-10.7869
インター	-10.787
リスク	-10.7872
ちゅう	-10.7875
講	-10.7875
太田	-10.7878
囲	-10.7878
南東	-10.7879
GO	-10.7882
才能	-10.7883
借	-10.7885
LE	-10.7887
▁中国	-10.7887
ようになっている	-10.7887
攻略	-10.7888
正規	-10.7889
[	-10.789
のやうに	-10.789
高松	-10.7892
上から	-10.7893
どちら	-10.7894
京都府	-10.7894
シリア	-10.7898
たった	-10.7899
磨	-10.7903
されず	-10.7904
静岡	-10.7905
渋谷	-10.7906
手で	-10.7906
潜	-10.7908
傾	-10.791
bo	-10.7911
終了した	-10.7911
探	-10.7911
ナンバー	-10.7911
▁当時の	-10.7914
権を	-10.7919
に移り	-10.7919
作品である	-10.7922
回目の	-10.7922
二人は	-10.7924
として活動	-10.7925
からだ	-10.7925
ディン	-10.7927
▁それで	-10.7928
旅団	-10.7931
したのは	-10.7933
民衆	-10.7935
パソコン	-10.7939
にくい	-10.7939
過去に	-10.7941
勲	-10.7941
受信	-10.7947
差別	-10.795
完全な	-10.7952
▁1982	-10.7953
貸	-10.7956
騎兵	-10.7956
史料	-10.7957
覚え	-10.7959
請求	-10.796
銘	-10.796
置き換え	-10.7961
チャート	-10.7961
出版された	-10.7962
身に	-10.7965
離れ	-10.7966
は日本の	-10.7968
されるようになった	-10.7968
運航	-10.7969
を構成する	-10.7969
モール	-10.7971
謙	-10.7971
アプリケーション	-10.7973
ムス	-10.7974
ウェスト	-10.7978
いくら	-10.7978
時間帯	-10.7979
上演	-10.7983
疾患	-10.7983
碑	-10.7985
は第	-10.7986
っこ	-10.7986
不思議	-10.7986
妃	-10.7986
しまう	-10.7993
1957	-10.7995
レストラン	-10.7997
71	-10.7998
まん	-10.7999
不動産	-10.8
を知る	-10.8001
土曜	-10.8001
けど	-10.8002
中野	-10.8003
するための	-10.8003
ラク	-10.8004
追放	-10.8008
場所に	-10.8009
会話	-10.8009
装飾	-10.8009
激しく	-10.8009
連勝	-10.801
幻	-10.801
船団	-10.8011
位に	-10.8011
に師事	-10.8013
ならぬ	-10.8013
を務めていた	-10.8014
NO	-10.8014
ve	-10.8014
触れ	-10.8014
いら	-10.8015
詳細	-10.8015
真実	-10.8016
署名	-10.8019
ティア	-10.8023
射撃	-10.8024
軍を	-10.8025
死に	-10.8027
爆弾	-10.8028
1900	-10.8029
肉体	-10.803
ソル	-10.8031
助教授	-10.8035
パートナー	-10.8036
きっかけ	-10.8037
屈	-10.8037
欧米	-10.8038
ターミナル	-10.804
子に	-10.8042
猪	-10.8043
ハード	-10.8043
に戻った	-10.8048
をつけて	-10.8049
に帰	-10.8052
唇	-10.8052
退職	-10.8053
空母	-10.8054
孔	-10.8058
が発生し	-10.8059
に出場	-10.806
1951	-10.8061
四十	-10.8066
嘘	-10.8068
完	-10.8068
続ける	-10.8073
第四	-10.8075
子供たち	-10.8078
避難	-10.808
免	-10.808
あなたは	-10.8081
烏	-10.8085
コア	-10.8088
天然	-10.8089
シナリオ	-10.809
士官	-10.8091
種類の	-10.8092
んと	-10.8093
素材	-10.8095
暴力	-10.8096
瓶	-10.8097
分に	-10.8098
を通る	-10.81
に出演	-10.8101
長年	-10.8104
コフ	-10.8106
▁〜	-10.811
輔	-10.8111
戦場	-10.8112
返す	-10.8112
珠	-10.8112
亡くなった	-10.8113
回数	-10.8115
官僚	-10.8116
ないもの	-10.8116
遺体	-10.8121
相続	-10.8121
持って	-10.8126
出資	-10.8126
自分を	-10.8126
パーソナリティ	-10.8127
をとり	-10.8127
課程	-10.8129
同様の	-10.813
ペア	-10.8131
行事	-10.8132
ver	-10.8133
降伏	-10.8134
云い	-10.8135
校舎	-10.8137
ふり	-10.8137
委託	-10.8138
本編	-10.8139
スティ	-10.814
われわれ	-10.8141
▁Ch	-10.8142
ジェイ	-10.8149
遠い	-10.8151
ソニー	-10.8154
と契約	-10.8156
自主	-10.8158
ルイス	-10.816
塗	-10.8161
フライ	-10.8162
支払	-10.8162
裁	-10.8162
ないと	-10.8163
乗り入れ	-10.8163
狭い	-10.8165
覆	-10.8165
休止	-10.817
青い	-10.8171
私も	-10.8172
オーディション	-10.8173
オンライン	-10.8173
とは異なり	-10.8176
でなく	-10.818
消え	-10.818
ナポレオン	-10.8181
一人で	-10.8181
概	-10.8185
達成	-10.8186
そうです	-10.8189
ネン	-10.8191
に住む	-10.8192
と思ふ	-10.8193
可能である	-10.8195
を呼び	-10.8195
ボストン	-10.8195
によるもの	-10.8198
語で	-10.8199
金沢	-10.82
であることを	-10.8201
ポル	-10.8203
one	-10.8207
黄金	-10.8208
▁X	-10.8209
上京	-10.8209
討	-10.8214
釣り	-10.8216
ノル	-10.8217
ドロ	-10.8218
AP	-10.822
繁殖	-10.822
班	-10.8222
が出	-10.8222
放映	-10.8222
飼育	-10.8224
夜間	-10.8226
ミュ	-10.8228
たちに	-10.8231
下さい	-10.8234
墓地	-10.8235
情報を	-10.8235
を設立	-10.8236
ファースト	-10.8237
数々の	-10.8238
悲	-10.8238
鉱	-10.8239
それだけ	-10.8244
都道府県	-10.8244
に存在する	-10.8249
だした	-10.8249
呼吸	-10.825
すぎる	-10.825
引っ	-10.8252
フォーク	-10.8252
▁1979	-10.8253
プロイセン	-10.8259
を決めた	-10.8259
童	-10.826
伝統的な	-10.826
▁したがって	-10.826
ノース	-10.8263
に戻り	-10.8264
観音	-10.8267
を出して	-10.8267
実装	-10.8268
電波	-10.827
は当時	-10.8271
汝	-10.8272
恒	-10.8274
踏み	-10.8276
せば	-10.8276
操	-10.8277
良く	-10.8277
*	-10.8281
勅	-10.8285
パッ	-10.8286
補給	-10.8293
珍しい	-10.8293
たくさん	-10.8294
年ぶりに	-10.8295
友達	-10.8295
なのだ	-10.8296
魏	-10.8297
送信	-10.8299
騒	-10.83
一軍	-10.8302
我が	-10.8304
目的で	-10.8309
謀	-10.8309
を押し	-10.8309
あや	-10.831
ができる	-10.831
魅力	-10.8311
ミッション	-10.8313
方は	-10.8314
なかったため	-10.8317
書いて	-10.8317
▁d	-10.8322
日付で	-10.8323
訓	-10.8326
残っている	-10.8328
きっと	-10.8329
合流	-10.8332
さず	-10.8335
くて	-10.8337
肌	-10.8339
待	-10.834
▁しかも	-10.834
郵便	-10.8341
理事長	-10.8343
に入団	-10.8343
05	-10.8343
払い	-10.8344
ity	-10.8344
もはや	-10.8345
褐色	-10.8345
亡	-10.8346
みる	-10.8346
机	-10.8349
発表した	-10.8351
要塞	-10.8352
ぶつ	-10.8353
ダブル	-10.8353
締め	-10.8355
所で	-10.8358
を下	-10.8359
とはいえ	-10.836
結び	-10.836
してから	-10.836
がいた	-10.8363
与え	-10.8363
発電所	-10.8363
に来た	-10.8364
を達成	-10.8364
麗	-10.8372
しゅ	-10.8375
本拠地	-10.8376
斬	-10.8376
わり	-10.8376
を元に	-10.8377
即位	-10.8378
癌	-10.8379
ロイド	-10.838
部下	-10.8382
のうちに	-10.8382
急速に	-10.8383
夫妻	-10.8383
が多数	-10.8384
アカ	-10.8386
隠れ	-10.8388
戦前	-10.839
パッケージ	-10.8391
退任	-10.8393
までも	-10.8397
テープ	-10.8398
ですね	-10.8399
心持	-10.8399
SH	-10.8402
でん	-10.8402
プール	-10.8403
宮殿	-10.8403
若手	-10.8404
小野	-10.8406
強力な	-10.8408
異常	-10.8411
にわたり	-10.8414
1%	-10.8417
▁1972	-10.8418
モア	-10.8418
に必要な	-10.8419
一寸	-10.842
部族	-10.8421
両国	-10.8421
何度も	-10.8423
二三	-10.8425
ドーム	-10.8425
複雑な	-10.8426
塗装	-10.8426
期に	-10.8426
勝負	-10.8426
殻	-10.8429
プレス	-10.8431
ブログ	-10.8431
調子	-10.8433
▁In	-10.8436
に似た	-10.8438
知り	-10.8438
おこ	-10.8438
終了後	-10.8439
役者	-10.844
グレイ	-10.8441
ボーイ	-10.8441
ませ	-10.8442
ソビエト連邦	-10.8443
▁1981	-10.8445
あんな	-10.8446
食い	-10.8447
大橋	-10.8447
貧	-10.8448
騎手	-10.8449
▁それでも	-10.845
ED	-10.8451
受験	-10.8452
とにかく	-10.8453
会館	-10.8453
に立つ	-10.8455
に転	-10.8456
ヴァイ	-10.8457
に所属していた	-10.8458
タール	-10.8459
支店	-10.8459
ase	-10.846
が高く	-10.846
▁たとえば	-10.846
らす	-10.846
近くに	-10.8461
ランプ	-10.8461
べく	-10.8462
家へ	-10.8464
09	-10.8464
▁紀元前	-10.8467
ライバル	-10.8472
瑞	-10.8473
領主	-10.8474
食べ	-10.8474
部分は	-10.8476
願い	-10.8476
評論家	-10.8478
住居	-10.8481
ow	-10.8482
推	-10.8482
▁享年	-10.8483
武田	-10.8485
改めて	-10.8486
宮廷	-10.8486
ist	-10.8488
法則	-10.849
眺め	-10.8493
公式戦	-10.8493
易	-10.8494
が発表された	-10.8497
ルン	-10.8498
保有	-10.85
年代には	-10.85
蔭	-10.8502
墨	-10.8502
LA	-10.8503
へん	-10.8504
人目	-10.8506
シンガポール	-10.8506
子と	-10.8507
に加入	-10.8511
めい	-10.8513
航路	-10.8513
もともと	-10.8515
観念	-10.8518
周波数	-10.8522
校長	-10.8522
ナチス	-10.8522
富山	-10.8525
壊	-10.8528
人々が	-10.8528
軍に	-10.8529
沖縄県	-10.853
Br	-10.8535
貢献	-10.8537
医者	-10.8539
リニューアル	-10.8541
ルス	-10.8541
自身は	-10.8542
初出場	-10.8543
ハラ	-10.8543
エンド	-10.8545
師匠	-10.8546
なかったが	-10.8547
することとなった	-10.8548
體	-10.8548
ストーン	-10.8548
高原	-10.8549
▁&	-10.8552
シェル	-10.8553
まし	-10.8554
変わり	-10.8554
比例	-10.8554
警戒	-10.8555
天保	-10.8557
かける	-10.8558
サウス	-10.8558
配給	-10.8559
▁13	-10.856
競	-10.8561
を一	-10.8562
繰り	-10.8562
初回	-10.8562
楼	-10.8563
違反	-10.8563
近鉄	-10.8564
は通常	-10.8564
独特の	-10.8565
キル	-10.8567
複合	-10.8567
につき	-10.8568
賞受賞	-10.8576
モス	-10.8579
1939	-10.8579
チームが	-10.858
上げる	-10.858
フリードリヒ	-10.8581
あります	-10.8583
1,	-10.8583
などから	-10.8584
▁その結果	-10.8584
コメント	-10.8585
ul	-10.8587
岡田	-10.859
ドライブ	-10.859
呼び	-10.8591
弱い	-10.8592
出版社	-10.8592
ピーター	-10.8593
線と	-10.8593
我々	-10.8595
船舶	-10.8596
ボクシング	-10.8598
ゾン	-10.8599
ビス	-10.8601
KA	-10.8602
ツール	-10.8603
渡し	-10.8604
の死後	-10.8604
罰	-10.8604
損害	-10.8604
いろ	-10.8604
脈	-10.8605
入社	-10.8606
の中へ	-10.8607
周年	-10.8612
ーノ	-10.8613
の大きさ	-10.8614
だろうか	-10.8617
切って	-10.8618
ウォ	-10.8618
ゲート	-10.8622
▁此	-10.8623
ぱ	-10.8624
作った	-10.8625
がそれぞれ	-10.8628
ディレクター	-10.8628
啓	-10.8629
体を	-10.8629
生活を	-10.8629
武将	-10.863
制覇	-10.8631
オフィス	-10.8635
序	-10.8635
オープニング	-10.8635
は当初	-10.8635
東方	-10.8636
】	-10.8637
垣	-10.8637
乗車	-10.864
恋人	-10.8641
が特徴	-10.8643
死者	-10.8644
共演	-10.8647
テレビ番組	-10.8652
専攻	-10.8656
機が	-10.8662
菅	-10.8662
回戦で	-10.8662
のみである	-10.8663
地元の	-10.8663
▁De	-10.8666
体育	-10.8667
いなかった	-10.8669
がなかった	-10.8671
酒を	-10.8672
を担当	-10.8674
退団	-10.8675
居た	-10.8678
縮小	-10.8682
をかけて	-10.8689
暫定	-10.869
GI	-10.869
したら	-10.8691
ッティ	-10.8696
出現	-10.8697
被害者	-10.8697
削減	-10.8699
ガード	-10.8699
ところを	-10.87
かえって	-10.87
を投げ	-10.8701
募集	-10.8701
号は	-10.8701
すこし	-10.8703
教皇	-10.8705
診断	-10.8706
帰る	-10.8706
モリ	-10.8706
日に発売された	-10.8707
迄	-10.8708
肝	-10.8708
初演	-10.8712
▁通常	-10.8712
にあたり	-10.8715
宮城県	-10.8715
的なもの	-10.8716
になっており	-10.8718
沿い	-10.8719
▁1973	-10.8722
高速道路	-10.8722
えい	-10.8722
ゴルフ	-10.8722
疑い	-10.8724
po	-10.8725
選挙区	-10.8726
帽子	-10.8726
に引き	-10.8727
ぷ	-10.8732
ap	-10.8734
討ち	-10.8734
群馬県	-10.8735
が始まる	-10.8736
将棋	-10.8739
エフ	-10.8739
指揮者	-10.8741
知らせ	-10.8741
ca	-10.8744
わかる	-10.8745
催	-10.8746
を迎え	-10.8747
事に	-10.8748
兆	-10.8748
ガラ	-10.8748
公立	-10.8748
甚	-10.8749
隊長	-10.875
末に	-10.8752
玄関	-10.8754
ダービー	-10.8756
恥	-10.8756
ふる	-10.8756
エドワード	-10.8756
朝日	-10.8759
必要な	-10.8762
短縮	-10.8763
すと	-10.8765
なに	-10.8767
っても	-10.8767
▁1978	-10.8773
1/	-10.8774
次に	-10.8775
回路	-10.8775
国籍	-10.8775
中でも	-10.8776
確率	-10.8776
デザイナー	-10.8777
死後	-10.8778
君主	-10.8781
▁フランス	-10.8781
町にある	-10.8788
監	-10.8789
妾	-10.8791
ハム	-10.8792
業績	-10.8792
ライター	-10.8795
かさ	-10.8798
水道	-10.88
▁このように	-10.88
市町村	-10.8805
特殊な	-10.8808
認知	-10.8811
阪	-10.8811
ロフ	-10.8811
であるという	-10.8813
当日	-10.8815
混合	-10.8816
▁更に	-10.8817
太平洋戦争	-10.8818
含	-10.8821
のなかに	-10.8821
レンズ	-10.8824
日々	-10.8825
に際して	-10.8826
3%	-10.8827
参考	-10.8828
を加えた	-10.8828
ティン	-10.8829
の前で	-10.8829
婚	-10.8829
しかない	-10.883
機動	-10.8832
を行うこと	-10.8839
sa	-10.8839
この地域	-10.884
駆け	-10.884
といえる	-10.8842
2%	-10.8842
みち	-10.8843
ハイム	-10.8845
を占める	-10.8847
タンパク質	-10.8848
は全	-10.8854
響	-10.8855
出走	-10.8857
反映	-10.8859
ドイツ軍	-10.8861
しようとした	-10.8861
ゴールデン	-10.8862
▁Co	-10.8862
療法	-10.8863
逆転	-10.8864
じっと	-10.8864
扱	-10.8869
ヨン	-10.887
連覇	-10.8872
限界	-10.8875
で知られる	-10.8877
衛生	-10.8877
続き	-10.8881
ンド	-10.8883
はそれぞれ	-10.8885
開拓	-10.8888
かる	-10.8889
隠し	-10.889
感謝	-10.8891
自由に	-10.8892
〕	-10.8894
黒人	-10.8895
SO	-10.8895
所在地	-10.8896
で行われる	-10.8898
変動	-10.8899
趙	-10.8899
ドラム	-10.8899
わい	-10.8901
考え方	-10.8903
ノール	-10.8904
ましい	-10.8909
随	-10.891
に伴って	-10.8911
前方	-10.8913
数値	-10.8915
施	-10.8917
サンタ	-10.8917
へ行く	-10.8921
一杯	-10.8921
同意	-10.8923
移植	-10.8923
崇	-10.8927
総称	-10.8927
信用	-10.8928
実践	-10.8928
AI	-10.8931
とど	-10.8934
オーケストラ	-10.8935
辛	-10.8936
ねん	-10.8945
1913	-10.8945
ペット	-10.8947
▁その時	-10.8948
顎	-10.895
考案	-10.8953
ka	-10.8955
▁1975	-10.8955
べし	-10.8956
日曜	-10.8957
立地	-10.8958
07	-10.8958
やっと	-10.8958
稀	-10.8959
CH	-10.8959
思われ	-10.896
配備	-10.8961
勲章	-10.8961
平安時代	-10.8962
著者	-10.8963
THE	-10.8963
の一環として	-10.8968
手前	-10.897
十三	-10.8971
pe	-10.8972
馬車	-10.8972
ツェ	-10.8972
意思	-10.8972
▁同時に	-10.8972
1,000	-10.8973
合戦	-10.8975
ましたが	-10.8976
意志	-10.8977
上杉	-10.8977
使用された	-10.8977
源氏	-10.8979
既	-10.8979
メモリ	-10.8981
衝撃	-10.8981
快速	-10.8981
ほかに	-10.8982
流域	-10.8982
庁舎	-10.8986
ためである	-10.8989
を利用する	-10.8991
侵入	-10.8993
戦力	-10.8993
大部分	-10.8994
ロイヤル	-10.8994
汁	-10.8996
ネオ	-10.8996
んじ	-10.8998
無限	-10.9001
回収	-10.9001
▁それを	-10.9004
松山	-10.9006
が始まり	-10.9006
国内で	-10.9008
OR	-10.9009
に指定されている	-10.901
十六	-10.901
半ば	-10.9011
甥	-10.9013
管区	-10.9014
ユニ	-10.9014
一枚	-10.9015
筒	-10.9015
発見された	-10.9015
演説	-10.9018
なぞ	-10.9018
マイクロ	-10.9018
託	-10.9019
征	-10.902
を担当する	-10.902
tion	-10.902
気象	-10.9025
釜	-10.9025
チベット	-10.9025
奏者	-10.9026
まもなく	-10.9028
曲が	-10.9028
用いられ	-10.9029
終盤	-10.9029
クイズ	-10.9033
面積は	-10.9034
皮膚	-10.9039
酸素	-10.9042
数多くの	-10.9042
しめ	-10.9044
歌う	-10.9044
を取って	-10.9045
バレーボール	-10.9046
周り	-10.9046
公表	-10.9048
艦長	-10.9048
段階で	-10.905
しようとする	-10.905
タワー	-10.9051
知られ	-10.9053
は再び	-10.9053
到	-10.9054
順に	-10.9057
ba	-10.9059
進む	-10.906
天体	-10.906
マガジン	-10.9061
朝廷	-10.9064
週刊	-10.9064
殺された	-10.9066
ッパー	-10.907
乾燥	-10.9073
ース	-10.9076
スパ	-10.9077
各地	-10.9078
ヒュー	-10.9079
確	-10.9082
機関車	-10.9084
編纂	-10.9084
闘争	-10.9084
ティック	-10.9084
を挙げた	-10.9085
東宝	-10.9086
の影響で	-10.9086
雀	-10.9088
が登場する	-10.909
タイヤ	-10.909
築	-10.9092
ラテン語	-10.9095
克	-10.9096
ミュージカル	-10.9097
前身	-10.9097
を利用した	-10.9098
▁イギリス	-10.9099
わか	-10.9099
歳の時に	-10.91
のなかで	-10.9104
にあって	-10.9105
そんなこと	-10.9105
宮崎	-10.9106
積極的に	-10.9108
▁1971	-10.9114
登場した	-10.9114
開け	-10.9115
を眺め	-10.9117
務めた	-10.9117
南方	-10.9118
十八	-10.9119
きん	-10.912
IV	-10.9122
へば	-10.9122
▁近年	-10.9125
NS	-10.9126
連合軍	-10.9127
以外にも	-10.9127
ヒトラー	-10.9128
解体	-10.9128
云	-10.9129
量は	-10.9129
入った	-10.9131
直径	-10.9133
▁同じ	-10.9135
賞金	-10.9135
決議	-10.9135
野村	-10.9136
ベリー	-10.9136
1937	-10.9136
斗	-10.9138
ive	-10.9139
貰	-10.914
チー	-10.914
寂	-10.9141
ラリー	-10.9141
今夜	-10.9143
量産	-10.9144
まじ	-10.9144
ヒーロー	-10.9145
年までに	-10.9146
忌	-10.9153
みると	-10.9153
零	-10.9153
疲れ	-10.9154
と云って	-10.9156
意向	-10.9161
否	-10.9162
軟	-10.9163
トレーニング	-10.9166
的で	-10.9167
付けた	-10.9171
インドネシア	-10.9172
授与	-10.9173
修行	-10.9173
まわり	-10.9177
1911	-10.9177
製造された	-10.9177
ことや	-10.9178
あて	-10.9179
プロセス	-10.918
鹿児島県	-10.9182
麦	-10.9182
を果たし	-10.9183
向けの	-10.9187
使う	-10.9191
自分たち	-10.9193
保証	-10.9196
荷物	-10.9196
をつけ	-10.9197
▁翌年	-10.9197
堤	-10.9198
述	-10.9199
今は	-10.9199
季節	-10.9199
勧め	-10.92
時間が	-10.9201
栄養	-10.9204
バード	-10.9205
経済的	-10.9206
中島	-10.9208
は以下の	-10.9208
工作	-10.921
停留所	-10.9212
町名	-10.9214
アルコール	-10.9215
1938	-10.9215
空中	-10.9216
に生まれた	-10.9218
物資	-10.9218
稿	-10.9219
▁1976	-10.9224
▁20	-10.9226
ロマン	-10.9227
白人	-10.9227
社名	-10.9228
点で	-10.9228
GT	-10.9229
▁主な	-10.9229
生息	-10.923
レッ	-10.9235
乙	-10.9235
ねばならぬ	-10.9235
影響力	-10.9238
バスケットボール	-10.9238
それほど	-10.924
逃亡	-10.9244
述べた	-10.9245
フト	-10.9245
しげ	-10.9246
接近	-10.9246
笹	-10.9246
循環	-10.9246
充	-10.925
著名な	-10.925
批評	-10.925
を抱え	-10.9251
旦那	-10.9252
大坂	-10.9254
α	-10.9259
高山	-10.926
ーム	-10.926
ばら	-10.926
ts	-10.9261
最後	-10.9262
先輩	-10.9263
以外は	-10.9265
▁19	-10.9266
臭	-10.9267
に選出された	-10.927
吸収	-10.9272
他にも	-10.9274
同期	-10.9274
ミリ	-10.9277
が出た	-10.9279
融	-10.9279
主として	-10.9279
1936	-10.928
宜	-10.9281
絹	-10.9286
こっち	-10.9286
作中	-10.9287
結果として	-10.9287
ニュージーランド	-10.9288
選手として	-10.929
綾	-10.929
PR	-10.9291
アウ	-10.9291
膳	-10.9296
に用いられる	-10.9297
結成された	-10.9298
時刻	-10.9301
内側	-10.9303
次のように	-10.9303
ak	-10.9305
頭に	-10.9306
フェア	-10.9307
戒	-10.9307
課長	-10.9309
月末	-10.931
頻繁に	-10.9311
専門家	-10.9312
を書き	-10.9313
逃れ	-10.9313
庭園	-10.9314
人種	-10.9315
ふたり	-10.9315
プラス	-10.9316
折り	-10.9318
を手	-10.9318
go	-10.9319
ke	-10.9321
da	-10.9321
思い出	-10.9324
名義で	-10.9325
的である	-10.9325
横須賀	-10.9325
遂に	-10.9327
戦術	-10.933
our	-10.9332
りょう	-10.9332
今回	-10.9332
音源	-10.9332
タリ	-10.9333
認められ	-10.9334
みつ	-10.9334
論理	-10.9334
容量	-10.9336
▁前作	-10.9339
衰退	-10.9343
コロンビア	-10.9345
騒動	-10.9347
透	-10.9347
集め	-10.9352
ポンド	-10.9353
ーク	-10.9356
で初	-10.9359
會	-10.936
汚	-10.936
いきなり	-10.936
論争	-10.9362
インターナショナル	-10.9364
マラソン	-10.9365
カリフォルニア	-10.937
分野で	-10.9371
増大	-10.9373
表情	-10.9375
背中	-10.9375
動力	-10.9378
よろ	-10.9378
到達	-10.9379
に成功した	-10.938
明るい	-10.9383
刺激	-10.9383
経済学	-10.9383
フィート	-10.9383
悩	-10.9384
上部	-10.9386
が担当	-10.9386
メダル	-10.9387
取って	-10.9387
なくても	-10.9388
▁1974	-10.9398
耐	-10.94
と対戦	-10.9401
飾り	-10.9409
さへ	-10.9409
学名	-10.941
駅で	-10.941
置いて	-10.9411
地獄	-10.9413
日本国内	-10.9414
国連	-10.9416
と思います	-10.9416
▁Ma	-10.9418
を続け	-10.9421
と呼ばれていた	-10.9421
町内	-10.9424
奪	-10.9426
自体は	-10.9427
近江	-10.9427
を起こす	-10.9428
▁其	-10.9428
になること	-10.9428
実力	-10.9434
古墳	-10.9435
を受けている	-10.9439
宝塚	-10.9439
歩く	-10.9443
前田	-10.9443
だか	-10.9445
を引	-10.9446
設	-10.9447
考える	-10.9451
警察署	-10.9452
等で	-10.9452
認可	-10.9455
程度の	-10.9455
岐阜	-10.9456
巨大	-10.9456
開放	-10.9456
神宮	-10.946
続いた	-10.9461
留め	-10.9463
々しい	-10.9466
とすれば	-10.9466
入れた	-10.9467
ストロ	-10.9468
一層	-10.9468
放出	-10.9473
5,	-10.9474
旭	-10.9475
エンディング	-10.9476
オイ	-10.9481
アラブ	-10.9481
広域	-10.9481
蝶	-10.9482
実在	-10.9483
とは異なる	-10.9484
と考え	-10.9484
用いられた	-10.9485
EU	-10.9485
悟	-10.9485
を提供する	-10.9487
家が	-10.9487
開館	-10.9489
不満	-10.949
書く	-10.9491
が出る	-10.9491
譜	-10.9492
としていた	-10.9494
包囲	-10.9496
ショート	-10.9497
境内	-10.9497
はこれを	-10.9498
ませんでした	-10.9501
反発	-10.9502
はじめた	-10.9503
が強く	-10.9505
を求めた	-10.9505
見えた	-10.9508
トーマス	-10.9511
▁実際	-10.9512
タッグ	-10.9514
BC	-10.9515
に対応	-10.9515
数十	-10.9515
化され	-10.9515
梨	-10.9515
雰囲気	-10.9516
後には	-10.9517
▁これらは	-10.9518
に行った	-10.9519
コマ	-10.952
濃度	-10.952
通貨	-10.9522
でもあり	-10.9523
招待	-10.9523
あん	-10.9528
浅草	-10.9528
ァ	-10.9534
ギャ	-10.9535
なれ	-10.9537
に達した	-10.9537
飛んで	-10.9537
残る	-10.9538
運賃	-10.9539
日本に	-10.9543
EX	-10.9547
中断	-10.9548
入手	-10.9549
研修	-10.955
餌	-10.9552
働く	-10.9553
廃車	-10.9553
湿	-10.9553
いつか	-10.9553
人間が	-10.9555
へて	-10.9555
岡山県	-10.9555
ともいう	-10.9556
▁Li	-10.9557
看板	-10.9557
得た	-10.9558
協議会	-10.9559
対決	-10.956
バレー	-10.956
彼女が	-10.9561
▁多くの	-10.9564
わら	-10.9567
次々と	-10.9568
心臓	-10.9568
▁1944	-10.957
結晶	-10.957
ガール	-10.9572
がよく	-10.9572
前期	-10.9573
或は	-10.9575
外側	-10.9575
▁南	-10.9578
矛盾	-10.9579
大規模	-10.9581
を含めた	-10.9581
決勝で	-10.9582
私たち	-10.9582
何故	-10.9582
ディズニー	-10.9583
DF	-10.9583
イェ	-10.9583
に入ると	-10.9585
て来る	-10.9587
起こった	-10.9587
肺	-10.9588
宇都宮	-10.9588
レート	-10.9589
有力	-10.959
やく	-10.959
促進	-10.9591
らせた	-10.9592
径	-10.9592
すり	-10.9593
家を	-10.9594
全身	-10.9595
em	-10.9595
付く	-10.9595
複雑	-10.9595
潰	-10.9597
バンク	-10.9597
はアメリカ	-10.9599
返り	-10.9601
春日	-10.9603
8%	-10.9603
南海	-10.9604
報告書	-10.9605
02	-10.9605
も同様	-10.9606
坪	-10.9606
聞く	-10.961
さを	-10.9611
ワイド	-10.9612
汗	-10.9612
仕掛け	-10.9615
積み	-10.9617
種目	-10.9617
へ向かう	-10.9618
上級	-10.9618
be	-10.9621
故に	-10.9621
▁1977	-10.9623
熊本県	-10.9623
元気	-10.9625
▁1969	-10.9626
同志	-10.9626
位となった	-10.9629
いかに	-10.963
6%	-10.9632
ING	-10.9636
テレビ朝日	-10.9638
騒ぎ	-10.964
▁四	-10.9641
合せ	-10.9642
割り	-10.9643
をきっかけに	-10.9646
ってしまう	-10.9647
1915	-10.9649
になりました	-10.9652
附属	-10.9654
を持たない	-10.9654
起き	-10.9656
財団	-10.9658
けば	-10.966
との間	-10.9661
面に	-10.9661
戦士	-10.9662
以下のような	-10.9662
900	-10.9664
ang	-10.9665
最終的には	-10.9665
成人	-10.9666
命中	-10.9667
決意	-10.9667
ズは	-10.9667
しょうがっこう	-10.9668
トス	-10.967
保管	-10.967
ET	-10.967
大西洋	-10.9673
というような	-10.9673
統制	-10.9674
に追い	-10.9674
移住	-10.9676
発電	-10.9678
クレジット	-10.9678
厭	-10.9679
垂	-10.968
準優勝	-10.968
多くは	-10.9682
もいる	-10.9683
溶	-10.9683
平方マイル	-10.9684
メタル	-10.9688
不正	-10.9689
1907	-10.9691
移	-10.9692
を有し	-10.9692
を中心とする	-10.9693
君が	-10.9694
在位	-10.9695
廊下	-10.9697
ton	-10.9697
クライ	-10.9698
汽車	-10.9699
就職	-10.9699
問題を	-10.97
と考えた	-10.9701
考えた	-10.9702
サンフランシスコ	-10.9703
学位	-10.9703
ますと	-10.9703
04	-10.9704
総裁	-10.9704
帰った	-10.9704
5,000	-10.9705
微笑	-10.9708
7%	-10.971
が存在し	-10.971
MLB	-10.9711
進学	-10.9711
タンク	-10.9712
騎	-10.9713
おいで	-10.9716
▁1968	-10.9717
困	-10.9718
伊達	-10.9718
何らかの	-10.9719
がけ	-10.972
シオ	-10.972
性が	-10.972
二郎	-10.9721
予測	-10.9727
▁正	-10.9728
留守	-10.9728
▁北海道	-10.973
民国	-10.9731
1908	-10.9731
れん	-10.9733
に属し	-10.9734
おろ	-10.9734
に達し	-10.9736
いえ	-10.9737
本来の	-10.9738
拾	-10.974
Re	-10.974
短編	-10.9741
女が	-10.9745
権威	-10.9745
06	-10.9746
燃え	-10.9747
ファミリー	-10.9747
駐車場	-10.9748
側から	-10.975
4%	-10.9753
見えない	-10.9754
ome	-10.9755
書物	-10.9758
シング	-10.9759
合った	-10.9759
プス	-10.9763
リク	-10.9765
これで	-10.9766
淳	-10.9766
わからない	-10.9766
曲線	-10.9767
あた	-10.9768
日にかけて	-10.9769
RC	-10.977
プレート	-10.977
状に	-10.9772
ガリ	-10.9773
ることで	-10.9773
を続けた	-10.9774
コムーネ	-10.9775
ければ	-10.9778
一丁目	-10.9779
留学	-10.978
シップ	-10.9783
法案	-10.9784
od	-10.9785
トランス	-10.9785
ラジオ番組	-10.9785
縫	-10.9786
講義	-10.9787
帰って	-10.9788
に参加する	-10.9788
リオン	-10.9795
琉球	-10.9796
はあまり	-10.9803
番線	-10.9805
山頂	-10.9805
社が	-10.9806
ミュー	-10.9809
アニ	-10.9812
まない	-10.9814
外観	-10.9815
ブルース	-10.9821
だな	-10.9824
セラ	-10.9825
青森県	-10.9825
千代	-10.9826
が発売された	-10.9827
130	-10.9829
辞任	-10.9831
せられ	-10.9832
天正	-10.9834
1933	-10.9835
年春	-10.9835
ッサ	-10.9836
下流	-10.9837
著作権	-10.9838
トリー	-10.9841
さわ	-10.9841
小川	-10.9842
SU	-10.9845
小倉	-10.9845
イギリス軍	-10.9845
叩	-10.9846
々に	-10.9849
岩手県	-10.9849
ることとなった	-10.985
けんどう	-10.985
していて	-10.9852
芸術家	-10.9852
閑	-10.9854
撃	-10.9854
眉	-10.9856
大尉	-10.9856
物理学	-10.9857
北陸	-10.9858
次第	-10.9858
しつつ	-10.9859
美濃	-10.9859
は他の	-10.9859
もその	-10.9861
▁何	-10.9863
咲	-10.9863
▁0	-10.9867
先頭	-10.9868
当主	-10.987
見られ	-10.9871
といふこと	-10.9871
すが	-10.9871
合わせて	-10.9873
発掘	-10.9875
小惑星	-10.9875
ary	-10.9876
気味	-10.9878
特別な	-10.9879
終戦	-10.9881
ニス	-10.9881
徴	-10.9885
関与	-10.9885
代表的な	-10.9886
フレーム	-10.9888
決め	-10.9888
蒼	-10.9888
死体	-10.9888
No	-10.9889
気温	-10.9889
公国	-10.9893
定理	-10.9894
ある程度	-10.9894
トラブル	-10.9894
を取得	-10.9895
堺	-10.99
気を	-10.9903
顔を見	-10.9906
事項	-10.9907
入院	-10.9908
液体	-10.991
チェコ	-10.991
を占め	-10.9911
マール	-10.9915
ばん	-10.9917
描かれた	-10.9917
ナショナル	-10.9923
見せ	-10.9924
充分	-10.9926
高田	-10.9926
経由	-10.9926
主義者	-10.9926
蒸気	-10.9926
粘	-10.9927
ことであった	-10.9932
相違	-10.9933
生え	-10.9934
遇	-10.9936
▁この頃	-10.9938
ダイヤ	-10.9938
皿	-10.994
この頃	-10.9941
洪水	-10.9944
the	-10.9945
イラク	-10.9945
煙草	-10.9945
低く	-10.9947
1905	-10.9948
更	-10.9949
鳳	-10.9952
三河	-10.9952
付いて	-10.9954
この作品	-10.9954
製作された	-10.9955
に渡り	-10.9956
保持	-10.9957
爪	-10.9958
桐	-10.9958
▁今日	-10.996
いけ	-10.9963
DC	-10.9965
間は	-10.9967
惨	-10.9969
尼	-10.9971
ヴォル	-10.9972
城主	-10.9973
プロモーション	-10.9973
市川	-10.9975
1934	-10.9976
フィリップ	-10.9978
編入	-10.9978
絡	-10.9979
に参戦	-10.9979
コンテンツ	-10.998
だんだん	-10.998
山崎	-10.998
過去の	-10.9983
わなかった	-10.9983
つつある	-10.9984
懸念	-10.9985
ディオ	-10.9986
達が	-10.9986
口から	-10.9988
何でも	-10.9989
渋	-10.999
にしても	-10.999
は同じ	-10.9991
将校	-10.9991
翁	-10.9992
と見	-10.9992
署	-10.9993
釣	-10.9994
解消	-10.9995
登山	-10.9995
もこの	-10.9998
圧縮	-10.9998
買い	-10.9998
気分	-10.9999
強さ	-11
を残した	-11.0001
吉野	-11.0004
苦労	-11.0007
彫刻	-11.001
fe	-11.001
アール	-11.0011
山口県	-11.0011
匹	-11.0011
車線	-11.0012
生まれた	-11.0013
注目	-11.0016
NBA	-11.0017
依存	-11.0017
恐	-11.0018
交易	-11.0019
を受賞	-11.002
周年記念	-11.0021
十一	-11.0021
亮	-11.0022
後継者	-11.0023
あるもの	-11.0023
中華民国	-11.0025
ギア	-11.0026
ランク	-11.0027
ジャクソン	-11.0027
女中	-11.0027
篠	-11.0028
採用された	-11.0029
たけ	-11.0029
争	-11.003
定数	-11.0032
という名称	-11.0035
テイ	-11.0035
を開始し	-11.0035
司教	-11.0035
救助	-11.0036
ということは	-11.0037
世話	-11.0039
ゴル	-11.0041
リル	-11.0041
がく	-11.0043
嶺	-11.0043
恐ろしい	-11.0044
▁昭和	-11.0044
徳島	-11.0045
建立	-11.0046
日本テレビ	-11.0047
全面	-11.0047
映画監督	-11.0049
掌	-11.005
丘陵	-11.0051
崩れ	-11.0052
大きさ	-11.0053
セミ	-11.0054
喜び	-11.0054
告げ	-11.0055
ヤマ	-11.0056
を使い	-11.0056
してゐた	-11.0058
主宰	-11.0058
リャ	-11.0058
つもり	-11.006
代理	-11.0063
クレイ	-11.0063
モンスター	-11.0064
抜	-11.0065
1932	-11.0066
今日は	-11.0069
締結	-11.0069
会計	-11.007
島に	-11.007
毎に	-11.007
飛ば	-11.0071
芸能	-11.0072
ナウ	-11.0074
▁ドイツ	-11.0075
新しく	-11.0076
俺は	-11.008
変わる	-11.0081
を採用した	-11.0081
使用され	-11.0082
何ん	-11.0084
▁Y	-11.0085
に存在した	-11.0085
りゅう	-11.0086
緑色	-11.0088
▁まず	-11.009
見られた	-11.009
るまで	-11.0091
sp	-11.0091
恭	-11.0091
▁以下	-11.0091
コントロール	-11.0091
レム	-11.0092
漫画家	-11.0093
かげ	-11.0095
を求めて	-11.0095
水準	-11.0095
昆虫	-11.0096
エール	-11.0097
エク	-11.0098
釈	-11.0098
ばし	-11.0098
いん	-11.0099
1935	-11.01
線は	-11.0102
メリ	-11.0102
ID	-11.0103
形を	-11.0103
暖	-11.0105
男爵	-11.0105
に所属	-11.0108
国防	-11.0112
プレーオフ	-11.0113
側が	-11.0116
年末	-11.0116
寸	-11.0117
キャンペーン	-11.0117
EP	-11.0117
お前は	-11.012
摩	-11.0121
静かに	-11.0122
活躍した	-11.0123
の高さ	-11.0124
を形成する	-11.0124
祀	-11.0126
DI	-11.0126
基本的な	-11.0127
アレンジ	-11.0128
に進出	-11.0128
信濃	-11.0131
が非常に	-11.0133
線を	-11.0136
往来	-11.0137
皇后	-11.0138
日目	-11.0139
が発生した	-11.014
▁Mo	-11.014
あさ	-11.0141
単なる	-11.0143
停	-11.0143
ru	-11.0143
ウェブ	-11.0148
同時期に	-11.0149
ることを	-11.0149
ster	-11.015
ことと	-11.0151
▁Z	-11.0151
セルビア	-11.0153
以前から	-11.0154
はイギリス	-11.0154
ide	-11.0155
化合物	-11.0156
1889	-11.0158
ディス	-11.0159
したことで	-11.016
研究会	-11.0161
長距離	-11.0162
起用	-11.0162
発生する	-11.0163
WA	-11.0164
重い	-11.0164
山梨県	-11.0165
衆議院議員	-11.0167
水上	-11.0169
ヒロイン	-11.0171
マイク	-11.0171
豚	-11.0172
クリス	-11.0172
TS	-11.0173
賛成	-11.0177
まっている	-11.0178
得られる	-11.0178
ci	-11.0178
に及ぶ	-11.0179
棲	-11.0179
りん	-11.0179
年までは	-11.0184
クリスマス	-11.0184
理由は	-11.0186
果て	-11.0186
百姓	-11.0186
りする	-11.0187
が少ない	-11.0189
講談社	-11.0189
グー	-11.019
開催された	-11.019
処刑	-11.0191
専	-11.0192
んだから	-11.0194
視点	-11.0196
正式な	-11.0197
変わった	-11.0199
タクシー	-11.02
長編	-11.02
祖母	-11.02
を搭載した	-11.0201
もう一つ	-11.0202
足利	-11.0202
終点	-11.0203
左翼	-11.0204
飛行場	-11.0205
テス	-11.0206
阪急	-11.021
と言われ	-11.0211
ルーム	-11.0212
しろ	-11.0215
務め	-11.0215
オスマン帝国	-11.0215
ドラゴン	-11.0215
La	-11.0218
が強い	-11.0221
車は	-11.0222
応募	-11.0222
up	-11.0223
寛永	-11.0224
齢	-11.0225
スリー	-11.0227
従業員	-11.0229
▁こう	-11.0232
コンテスト	-11.0233
りした	-11.0235
知れ	-11.0237
影響を受け	-11.024
を扱う	-11.0241
独自	-11.0241
伊豆	-11.0243
付近に	-11.0243
サイン	-11.0246
つま	-11.0246
知らぬ	-11.0246
無く	-11.0247
に見られる	-11.0248
列車が	-11.0249
ギリシア	-11.025
聲	-11.0251
だね	-11.0253
以上に	-11.0254
使用される	-11.0256
品種	-11.0258
一行	-11.0259
黙って	-11.0259
運河	-11.0259
不可	-11.026
配布	-11.0263
▁他に	-11.0263
範	-11.0264
元禄	-11.0264
索	-11.0265
崖	-11.0265
ルーマニア	-11.0266
ニャ	-11.0266
1916	-11.027
言えば	-11.0273
が発生する	-11.0273
の多い	-11.0275
の他に	-11.0275
儀式	-11.0276
土曜日	-11.0278
生放送	-11.0278
認め	-11.0279
共和党	-11.0279
わかり	-11.0281
▁1967	-11.0283
必ずしも	-11.0283
共有	-11.0285
騎士	-11.0289
だったため	-11.0291
征服	-11.0291
一九	-11.0295
を表明	-11.0295
数多く	-11.0295
▁結局	-11.0297
クルー	-11.0298
私を	-11.0298
へ移籍	-11.0298
ろうと	-11.03
コーヒー	-11.0302
詠	-11.0302
何処	-11.0302
燕	-11.0307
に過ぎない	-11.0309
周期	-11.0309
もいい	-11.0309
派生	-11.0311
オプション	-11.0312
を務めている	-11.0312
▁1940	-11.0313
ファイナル	-11.0317
▁Me	-11.0319
なのか	-11.0321
爆撃	-11.0321
電池	-11.0323
をつけた	-11.0329
動員	-11.033
命じ	-11.0331
ヴェン	-11.0332
ることは	-11.0333
エリザベス	-11.0334
修復	-11.034
ショウ	-11.0341
新設	-11.0342
三日	-11.0345
太郎は	-11.0347
かせ	-11.0349
動く	-11.035
水路	-11.0351
スカウト	-11.0352
度々	-11.0352
タス	-11.0354
粗	-11.0355
尿	-11.0355
トレード	-11.0355
隔	-11.0357
を機に	-11.0359
隣接する	-11.0359
に見える	-11.036
少しも	-11.036
米軍	-11.0361
狼	-11.0363
入って	-11.0363
Web	-11.0364
に渡って	-11.0364
前面	-11.0364
を起こし	-11.0365
158	-11.0367
優勝した	-11.0367
自分に	-11.0368
暫く	-11.0369
内には	-11.0369
OL	-11.0372
水戸	-11.0373
を出し	-11.0373
メタ	-11.0374
んだよ	-11.0376
かかり	-11.038
滅亡	-11.038
文化財	-11.0383
既存の	-11.0383
キス	-11.0384
ies	-11.0385
ポップ	-11.0387
おいて	-11.0389
を学び	-11.0389
RPG	-11.039
支配下	-11.0392
コピー	-11.0394
歌舞伎	-11.0394
が増え	-11.0395
LI	-11.0397
村上	-11.0397
正月	-11.0398
に達する	-11.0398
ローン	-11.0399
昨日	-11.0402
葛	-11.0405
喧嘩	-11.0407
埋	-11.0408
勢い	-11.0409
冒頭	-11.041
版では	-11.0411
砲撃	-11.0411
過ごし	-11.0411
主任	-11.0412
することになる	-11.0412
換	-11.0413
▁もっとも	-11.0413
走る	-11.0413
間違い	-11.0414
TKO	-11.0416
をかけ	-11.0416
を送り	-11.0419
通勤	-11.0419
と結婚	-11.0421
キューバ	-11.0423
橋本	-11.0424
任意の	-11.0425
幾つか	-11.0425
場所で	-11.0426
ong	-11.0427
どころ	-11.0428
110	-11.0428
発展した	-11.043
取られ	-11.0432
椎	-11.0437
司令	-11.0437
この地	-11.0438
発着	-11.0439
貢	-11.0441
れている	-11.0442
栃木県	-11.0447
寄付	-11.0448
付ける	-11.045
代藩主	-11.0452
通路	-11.0453
ほしい	-11.0454
▁当	-11.0455
オレ	-11.0457
少なく	-11.0458
▁高	-11.0458
変身	-11.0458
を用い	-11.0459
三角	-11.0459
と異なり	-11.0459
完了	-11.046
と呼び	-11.0463
に至るまで	-11.0464
その後は	-11.0464
提示	-11.0465
AAA	-11.0467
職人	-11.0467
スペ	-11.0468
大量	-11.0469
革	-11.0469
巧	-11.0471
1928	-11.0472
品質	-11.0472
想定	-11.0472
結論	-11.0473
ベリ	-11.0473
を図る	-11.0474
を破り	-11.0477
アプリ	-11.0478
売り上げ	-11.0479
化石	-11.048
との間で	-11.048
置かれ	-11.0481
アブ	-11.0481
大韓民国	-11.0483
リヤ	-11.0483
マックス	-11.0484
届	-11.0487
総会	-11.0487
1909	-11.0487
役人	-11.0488
ゴム	-11.0488
昇進	-11.0489
摂	-11.0489
9%	-11.049
云って	-11.0491
されているが	-11.0495
細川	-11.0498
曲を	-11.0498
試作	-11.0498
云ふ	-11.05
場で	-11.05
トイレ	-11.05
1906	-11.0501
と考える	-11.0501
改装	-11.0501
竣工	-11.0502
てくれ	-11.0502
椅子	-11.0504
さか	-11.0504
緩	-11.0504
もなかった	-11.0505
といわれている	-11.0507
エロ	-11.0507
ボーナス	-11.0508
を率いて	-11.0511
立派な	-11.0513
地域で	-11.0513
ウェブサイト	-11.0516
受けた	-11.0518
▁1964	-11.0518
が中心	-11.0519
ステップ	-11.052
石炭	-11.052
付けられた	-11.0521
1931	-11.0521
バラエティ番組	-11.0523
こととなる	-11.0524
▁五	-11.0524
ねば	-11.0526
仕方	-11.0526
を基に	-11.0527
パック	-11.0527
にわたる	-11.0527
BE	-11.0528
方程式	-11.0528
剥	-11.0532
ビーチ	-11.0532
らせる	-11.0533
バランス	-11.0533
ラップ	-11.0534
織田	-11.0538
佐々木	-11.0539
山形	-11.0539
チリ	-11.0539
を作った	-11.0541
名古屋市	-11.0542
うら	-11.0543
di	-11.0544
日光	-11.0547
スピ	-11.0548
境界	-11.0549
トヨタ	-11.0552
衣装	-11.0554
密度	-11.0558
シャル	-11.056
で放送されていた	-11.0561
あつた	-11.0561
かなかった	-11.0564
機を	-11.0565
叙	-11.0566
キロメートル	-11.0569
秘書	-11.0569
から約	-11.0569
ラスト	-11.0572
部隊は	-11.0574
潔	-11.0574
隊員	-11.0575
を探	-11.0577
が大きい	-11.0579
提携	-11.0582
ノート	-11.0582
した際に	-11.0584
動機	-11.0585
生れ	-11.0586
比率	-11.0586
世紀末	-11.0588
同僚	-11.0589
第一次	-11.0589
などでは	-11.059
母は	-11.059
イチ	-11.059
丁度	-11.0591
変形	-11.0593
ブルガリア	-11.0595
▁マ	-11.0596
引用	-11.0596
犠牲	-11.0596
ジャーナリスト	-11.0597
1929	-11.0598
無視	-11.0598
岬	-11.06
ゾーン	-11.0602
ようで	-11.0603
粒	-11.0603
鮮	-11.0606
コマンド	-11.0607
物理	-11.0608
NG	-11.0608
後退	-11.0609
ツィ	-11.0612
ack	-11.0613
刊行された	-11.0616
があります	-11.0618
フロー	-11.0618
命を	-11.0619
原子力	-11.062
出演した	-11.0623
時台	-11.0623
構	-11.0625
模型	-11.0627
朴	-11.0627
に入学	-11.063
パネル	-11.0632
を置く	-11.0632
を見せた	-11.0635
河原	-11.0635
馬場	-11.0637
▁w	-11.0638
室に	-11.0639
銀座	-11.064
を挙げる	-11.064
スラ	-11.064
神田	-11.0641
塊	-11.0642
麓	-11.0643
独占	-11.0645
ことがあった	-11.0645
ダウンロード	-11.0646
ンは	-11.0646
本種	-11.0646
参入	-11.0647
切り替え	-11.0648
終結	-11.0649
ai	-11.065
世紀後半	-11.0652
すけ	-11.0654
だけに	-11.0655
放送開始	-11.0656
New	-11.0658
敷設	-11.0658
眼に	-11.0662
晩年	-11.0663
キリスト	-11.0663
新型	-11.0663
チェーン	-11.0666
ないか	-11.0668
本格的な	-11.0668
酷	-11.0671
悲し	-11.0672
クロアチア	-11.0673
上がって	-11.0674
鞍	-11.0675
沢山	-11.0676
DJ	-11.0676
スコット	-11.0677
っちゃ	-11.0678
長らく	-11.0679
イト	-11.068
▁以下は	-11.0682
コメディ	-11.0682
車内	-11.0684
じた	-11.0686
変わって	-11.0687
この曲	-11.0687
ぐる	-11.0688
利用できる	-11.0688
繰り返し	-11.0688
直前に	-11.0689
はフランス	-11.069
JA	-11.069
視聴率	-11.0691
滋賀県	-11.0693
多摩	-11.0693
函館	-11.0694
原料	-11.0697
するような	-11.0698
ドゥー	-11.0699
リップ	-11.07
きみ	-11.07
芸人	-11.07
を書いた	-11.0701
込め	-11.0703
イヤ	-11.0704
シュー	-11.0705
ろく	-11.0706
相手に	-11.0706
疎	-11.0709
傍ら	-11.071
と同一	-11.0712
夫は	-11.0712
ぐん	-11.0712
ノフ	-11.0713
各地で	-11.0715
ゆえ	-11.0715
建国	-11.0716
工夫	-11.0717
出馬	-11.0717
が設置された	-11.0718
の立場	-11.072
参加者	-11.0722
電源	-11.0722
難しい	-11.0723
ヴァイオリン	-11.0723
平面	-11.0723
透明	-11.0724
を受賞した	-11.0725
を達成した	-11.0725
なこと	-11.0728
はほぼ	-11.0728
を理由に	-11.0728
モハ	-11.0729
等を	-11.0729
描いた	-11.073
反射	-11.073
ワーク	-11.0732
協議	-11.0733
載せ	-11.0734
ノイ	-11.0734
欄	-11.0735
造り	-11.0737
キャスター	-11.0738
後者	-11.074
下部	-11.0742
バッ	-11.0742
番目に	-11.0742
ギン	-11.0742
地中海	-11.0743
SI	-11.0744
と結婚した	-11.0745
したところ	-11.0745
貴方	-11.0745
救援	-11.0746
作品で	-11.0748
代表作	-11.0749
周辺の	-11.0751
を取	-11.0753
明治時代	-11.0754
03	-11.0756
行っている	-11.0758
非常	-11.0761
▁花	-11.0761
金曜	-11.0762
ヨハン	-11.0763
遺産	-11.0764
どんなに	-11.0764
船体	-11.0765
ことなど	-11.0765
視聴者	-11.0766
悦	-11.0768
後部	-11.0768
大野	-11.0768
どり	-11.0771
るところ	-11.0772
有機	-11.0772
失点	-11.0774
第一次世界大戦	-11.0776
されるが	-11.0781
創設された	-11.0781
恒星	-11.0781
三浦	-11.0782
出演者	-11.0782
出来た	-11.0782
ッパ	-11.0782
て行く	-11.0783
出撃	-11.0784
がいい	-11.0784
を多く	-11.0784
戦国時代	-11.0785
起点	-11.0787
していなかった	-11.0788
DNA	-11.0789
鍋	-11.0789
どういう	-11.079
踏	-11.079
ときには	-11.0792
相手の	-11.0793
所蔵	-11.0793
ゞ	-11.0793
に関わる	-11.0794
後任	-11.0795
使われる	-11.0797
と改称	-11.0797
人権	-11.0798
中から	-11.0799
アナログ	-11.08
縄	-11.08
知る	-11.0801
ジオ	-11.0801
言ふ	-11.0802
▁1965	-11.0805
発売されている	-11.081
くなって	-11.0811
聞か	-11.0811
スコア	-11.0812
ass	-11.0815
SL	-11.0817
▁=	-11.0818
が設置され	-11.0819
本格的に	-11.0819
正義	-11.0821
人々の	-11.0821
込まれた	-11.0823
去る	-11.0824
の如き	-11.0824
付いた	-11.0824
猟	-11.0827
耳に	-11.0827
原稿	-11.0828
井戸	-11.0828
に乗って	-11.0828
幅広い	-11.0829
渡り	-11.0829
に進学	-11.0829
やっぱり	-11.083
ずれ	-11.083
は既に	-11.083
溜	-11.0831
隠居	-11.0831
炭素	-11.0833
アンドレ	-11.0835
右手	-11.0836
抗争	-11.0836
うしろ	-11.0836
リーは	-11.0839
登場している	-11.0839
岡崎	-11.084
無し	-11.0841
尽く	-11.0845
大島	-11.0845
漁業	-11.0846
仮名	-11.0846
立っている	-11.0846
初登場	-11.0846
萬	-11.085
鉢	-11.0851
中隊	-11.0851
恐らく	-11.0853
劇中	-11.0854
手が	-11.0854
競走馬	-11.0854
十分な	-11.0856
売上	-11.0857
哀	-11.0857
御用	-11.0858
十七	-11.0859
公爵	-11.086
ラジ	-11.086
簡易	-11.0861
知っている	-11.0862
カフェ	-11.0864
トロン	-11.0865
口径	-11.0867
Co	-11.0871
瀬戸	-11.0871
した際	-11.0873
現れ	-11.0874
▁ここ	-11.0877
影響を与え	-11.0882
を学ぶ	-11.0883
に従い	-11.0884
定める	-11.0884
ておらず	-11.0886
卑	-11.0886
砕	-11.0886
一生	-11.0888
農村	-11.0888
▁東京都出身	-11.0889
かぶ	-11.0891
と言える	-11.0894
でデビュー	-11.0896
五輪	-11.0898
を連れて	-11.09
ミラー	-11.09
世紀初頭	-11.09
簡	-11.0901
のもとで	-11.0901
座敷	-11.0902
存在していた	-11.0903
逃	-11.0906
繊維	-11.0907
百貨店	-11.0909
それと	-11.0911
大宮	-11.0911
法を	-11.0912
鷲	-11.0912
現行	-11.0913
駅まで	-11.0914
なにか	-11.0915
ジョンソン	-11.0918
▁1941	-11.0925
に次いで	-11.0926
▁エ	-11.0926
ロケ	-11.0926
第二次	-11.0927
道場	-11.0928
ron	-11.0931
世界遺産	-11.0931
複	-11.0932
▁b	-11.0933
▁1966	-11.0933
なす	-11.0933
振動	-11.0933
イスラム	-11.0936
カタ	-11.0937
なのである	-11.0937
が必要である	-11.0938
という名	-11.0938
十字	-11.094
表紙	-11.094
崩	-11.0942
時期に	-11.0942
を立て	-11.0943
優秀	-11.0947
する必要がある	-11.0947
もち	-11.0948
期間中	-11.0949
高校生	-11.095
親王	-11.0951
名誉教授	-11.0951
ゆえに	-11.0952
選ばれた	-11.0953
婆	-11.0954
▁私	-11.0956
であることから	-11.0958
アメリカ海軍	-11.0958
タッチ	-11.0959
Ba	-11.096
とうとう	-11.096
▁1943	-11.0962
を負	-11.0963
蹴	-11.0964
備え	-11.0965
が初めて	-11.0967
震	-11.0968
ひき	-11.0968
ございます	-11.0968
さに	-11.0968
謝	-11.0969
推測	-11.0969
細い	-11.097
個別	-11.097
分散	-11.097
福井	-11.0972
胃	-11.0972
ハウ	-11.0972
と称する	-11.0974
海賊	-11.0975
塵	-11.0977
水平	-11.0977
odice	-11.0977
県内	-11.0977
に所在する	-11.0977
技法	-11.0978
臨床	-11.0978
人員	-11.0978
に出て	-11.0982
併合	-11.0983
偉	-11.0984
電気鉄道	-11.0985
売れ	-11.0985
ニコ	-11.0988
書を	-11.099
講演	-11.0991
徐	-11.0993
意義	-11.0994
冬季	-11.0995
Ch	-11.0995
横断	-11.0996
エクス	-11.1001
車種	-11.1002
の一部を	-11.1003
を発見した	-11.1003
グラフ	-11.1004
太夫	-11.1004
7,	-11.1007
イズ	-11.1007
観光客	-11.1009
年ぶりの	-11.101
秋田県	-11.1011
近衛	-11.1011
LO	-11.1011
奈良県	-11.1014
何う	-11.1015
子さん	-11.1018
子孫	-11.1018
テク	-11.1021
▁従って	-11.1022
▁番組	-11.1023
刑務所	-11.1024
の違い	-11.1025
を考える	-11.1025
瓦	-11.1026
元々	-11.1026
ッグ	-11.1027
のであります	-11.1027
ェ	-11.103
家康	-11.1031
ケーブル	-11.1033
に比べ	-11.1033
渓	-11.1035
金額	-11.1035
斎藤	-11.1038
松竹	-11.1038
を獲得し	-11.1038
映画化	-11.1039
MF	-11.1042
目撃	-11.1042
行われている	-11.1042
話が	-11.1043
アリス	-11.1044
諏訪	-11.1044
直ちに	-11.1045
技術者	-11.1047
トウ	-11.1048
っか	-11.1048
つくり	-11.1048
を加え	-11.1048
とは別	-11.105
日曜日	-11.1051
ベッド	-11.1053
篤	-11.1055
を発売	-11.1056
するのは	-11.1056
毛利	-11.1056
潤	-11.1057
柔	-11.1057
嗣	-11.1057
を採用し	-11.1058
科学者	-11.1058
使者	-11.1058
当初から	-11.1058
曰く	-11.1059
DO	-11.106
日中	-11.1061
くれた	-11.1062
りながら	-11.1062
遅	-11.1062
実業家	-11.1065
真似	-11.1067
に再	-11.107
ph	-11.107
簡単に	-11.1073
野菜	-11.1074
要望	-11.1075
かしら	-11.1075
ヂ	-11.1075
ならびに	-11.1077
戦死	-11.1077
年代の	-11.1079
市に	-11.1079
人事	-11.108
同月	-11.1082
を脱	-11.1084
着陸	-11.1085
カンパニー	-11.1086
ビュ	-11.1092
重複	-11.1092
述べている	-11.1095
人達	-11.1096
セレ	-11.1097
候補者	-11.1101
手続き	-11.1101
父が	-11.1102
胸に	-11.1105
最上	-11.1106
が挙げられる	-11.1108
実用	-11.111
真っ	-11.111
辞職	-11.111
王立	-11.1112
ペー	-11.1112
賜	-11.1113
▁本作は	-11.1114
上田	-11.1114
雌	-11.1117
アラン	-11.1117
沿線	-11.112
国外	-11.1121
近所	-11.1121
カッ	-11.1121
標本	-11.1122
次のような	-11.1123
鴨	-11.1123
の特徴	-11.1124
が開始され	-11.1125
なるもの	-11.1129
ッキング	-11.113
一歩	-11.113
グラム	-11.1132
あっ	-11.1132
ハーン	-11.1134
細菌	-11.1135
出演している	-11.1135
何時	-11.1135
学士	-11.1136
▁1942	-11.1136
話す	-11.1137
に出る	-11.1138
オーナー	-11.1139
していること	-11.1141
名前が	-11.1142
を掲げ	-11.1143
東京大学	-11.1144
次男	-11.1144
如く	-11.1145
HD	-11.1146
を失い	-11.1149
誓	-11.115
_2	-11.1151
三島	-11.1151
緩和	-11.1152
コーン	-11.1152
生じる	-11.1153
町村	-11.1154
軌	-11.1156
に代わって	-11.1156
ホールディングス	-11.1156
長女	-11.1157
王位	-11.1158
入場	-11.1158
条例	-11.1159
叫び	-11.1161
を記録し	-11.1161
RS	-11.1162
当地	-11.1164
の位置	-11.1165
描かれ	-11.1165
で生まれた	-11.1165
詳しく	-11.1166
コンクール	-11.1167
影響を与えた	-11.1168
嘆	-11.117
リトアニア	-11.1171
近世	-11.1172
手紙を	-11.1172
あわせて	-11.1173
マネージャー	-11.1174
建造物	-11.1174
旧制	-11.1174
Al	-11.1174
着物	-11.1175
徹底	-11.1175
のもとに	-11.1176
哉	-11.1179
説得	-11.118
est	-11.118
コミックス	-11.1182
ズム	-11.1182
並み	-11.1183
翔	-11.1183
藻	-11.1184
迎え	-11.1184
クール	-11.1185
歌を	-11.1185
徳島県	-11.1186
An	-11.1186
▁金	-11.1186
月にかけて	-11.1186
中核	-11.1187
特集	-11.1188
スタンド	-11.1188
浸	-11.1188
市街	-11.1188
iz	-11.1189
建築家	-11.1189
検出	-11.1191
てしまい	-11.1191
すべく	-11.1191
胆	-11.1193
台風	-11.1194
と述べ	-11.1194
長崎県	-11.1196
直通	-11.1196
って来る	-11.1196
狐	-11.1197
鋭	-11.1197
グレー	-11.12
che	-11.1202
ギュ	-11.1202
でありながら	-11.1203
ミュンヘン	-11.1205
▁最初の	-11.1206
配列	-11.1207
につれて	-11.1208
建設された	-11.1209
人材	-11.1211
牧師	-11.1212
られており	-11.1212
二次	-11.1213
年連続	-11.1213
修了	-11.1215
ショック	-11.1217
▁本名は	-11.1218
オレンジ	-11.1218
知られる	-11.1219
好み	-11.122
小説家	-11.1221
据え	-11.1222
発足した	-11.1222
ブロン	-11.1223
変化する	-11.1224
金曜日	-11.1227
CI	-11.123
引退した	-11.123
富山県	-11.123
▁この間	-11.123
シェア	-11.1231
TR	-11.1232
EL	-11.1238
を構え	-11.1238
はドイツ	-11.1239
改札	-11.1239
たび	-11.124
単語	-11.1241
シアター	-11.1242
かかって	-11.1242
客車	-11.1244
見方	-11.1244
済み	-11.1247
借り	-11.1249
を訪れ	-11.1251
%	-11.1252
にちなんで	-11.1253
検索	-11.1253
tor	-11.1255
を追	-11.1257
問題は	-11.1258
北西部	-11.1258
不良	-11.1259
音を	-11.1259
を追い	-11.126
ix	-11.1264
扱う	-11.1266
代表として	-11.1266
責任者	-11.1269
▁このほか	-11.1271
SM	-11.1273
ヒー	-11.1273
安心	-11.1275
言ひ	-11.1275
駆	-11.1276
成り	-11.1276
2,000	-11.1277
捜索	-11.1277
歌唱	-11.1277
腐	-11.1278
学研究科	-11.1279
顧客	-11.128
を大きく	-11.1281
かつては	-11.1282
請	-11.1284
直し	-11.1284
チア	-11.1284
▁オ	-11.1285
青山	-11.1285
が設けられ	-11.1286
へる	-11.1287
証券	-11.1292
コウ	-11.1292
ミール	-11.1297
別名	-11.1297
▁江戸時代	-11.13
低迷	-11.13
に続く	-11.1303
海域	-11.1304
わった	-11.1306
数え	-11.1306
ヘリコプター	-11.1306
年代以降	-11.1307
装着	-11.131
140	-11.1312
姿が	-11.1313
捧げ	-11.1313
博多	-11.1314
形は	-11.1314
土佐	-11.1314
っち	-11.1315
▁1930	-11.1317
根本	-11.1318
をもとに	-11.1318
てから	-11.1318
十四	-11.132
一時期	-11.132
▁以下の	-11.1321
選手権大会	-11.1321
レーシング	-11.1323
介入	-11.1324
本作の	-11.1324
ヴィルヘルム	-11.1325
団地	-11.1326
大気	-11.1326
人格	-11.1327
世界で	-11.1327
戦う	-11.1328
削除	-11.1329
たびたび	-11.1331
町に	-11.1332
航行	-11.1332
グラス	-11.1335
▁こんな	-11.1337
でしょうか	-11.1337
1904	-11.1337
作品が	-11.1338
テラ	-11.1339
者と	-11.1339
ジョーンズ	-11.1339
挙げられ	-11.1341
であることが	-11.1342
▁いずれも	-11.1343
難い	-11.1344
点は	-11.1344
あくまで	-11.1346
▁この他	-11.1347
オラ	-11.1348
に向かった	-11.1348
教養	-11.135
本質	-11.1351
プー	-11.1351
稽古	-11.1351
行い	-11.1352
部分が	-11.1352
が起こる	-11.1354
キャン	-11.1356
会議で	-11.136
連携	-11.1362
が決定	-11.1363
曇	-11.1366
十分に	-11.1368
は同	-11.1369
陥落	-11.1369
フィル	-11.137
を作って	-11.1371
称号	-11.1372
イースト	-11.1374
出生	-11.1374
帆	-11.1374
イエス	-11.1374
GM	-11.1376
が用いられる	-11.1378
邪	-11.1378
死刑	-11.1379
現状	-11.1386
チョウ	-11.1387
チャレンジ	-11.1388
下記	-11.1388
初となる	-11.1389
▁然し	-11.1389
りて	-11.1391
1903	-11.1393
回大会	-11.1393
全般	-11.1393
キック	-11.1395
交わ	-11.14
マップ	-11.14
力士	-11.14
に改称	-11.1401
gen	-11.1403
シュタイン	-11.1403
とりわけ	-11.1405
描かれている	-11.1405
天使	-11.1406
がれ	-11.1406
悠	-11.1406
全線	-11.1406
養成	-11.1408
が少なく	-11.141
欲しい	-11.1411
隙	-11.1411
大分県	-11.1412
所在	-11.1412
不能	-11.1413
短く	-11.1414
判事	-11.1415
に到着した	-11.1415
先生は	-11.1416
1890	-11.1417
ou	-11.1419
飼	-11.142
数百	-11.142
ことができた	-11.142
はその後	-11.1426
原則として	-11.1429
脚本家	-11.1429
白色	-11.1429
揚げ	-11.143
杖	-11.1431
フェスティバル	-11.1431
思わず	-11.1431
合わせた	-11.1432
をつける	-11.1434
っしゃ	-11.1434
山岳	-11.1435
年ぶり	-11.1436
▁1963	-11.1436
満州	-11.1436
つづけ	-11.144
吐	-11.1441
フリ	-11.1442
息を	-11.1442
通常は	-11.1443
慶長	-11.1445
正確な	-11.1445
1925	-11.1447
ore	-11.1447
高架	-11.1447
番台	-11.1449
變	-11.1449
行われていた	-11.145
してくれ	-11.1451
正体	-11.1451
駅は	-11.1452
ガソリン	-11.1452
きら	-11.1453
ロッ	-11.1453
はかつて	-11.1455
観点から	-11.1456
キア	-11.1457
に於ける	-11.1458
シネマ	-11.1458
捕手	-11.1458
使用されていた	-11.1458
尾張	-11.1461
小山	-11.1461
が出来	-11.1463
内では	-11.1463
傘	-11.1464
いかなる	-11.1465
親子	-11.1469
信者	-11.147
住宅地	-11.147
幕末	-11.1474
奨励	-11.1477
に移動	-11.1478
を繰り返し	-11.1478
か所	-11.1479
嫌い	-11.148
始めて	-11.148
フェリー	-11.1481
承知	-11.1482
女神	-11.1482
が生じ	-11.1483
する形で	-11.1484
消滅した	-11.1485
ができ	-11.1485
山形県	-11.1487
hi	-11.1487
大会では	-11.1489
を聞き	-11.1491
越後	-11.1491
残留	-11.1491
掘	-11.1491
を迎える	-11.1492
いかにも	-11.1493
書かれている	-11.1494
DD	-11.1494
審判	-11.1495
貨幣	-11.1495
木造	-11.1496
▁FIFA	-11.1496
実家	-11.1496
1927	-11.1496
貸し	-11.1497
本国	-11.1498
は大きく	-11.15
頃には	-11.1501
しっかり	-11.1502
査	-11.1502
1924	-11.1504
せられる	-11.1505
ty	-11.1506
下記の	-11.1509
ユナイテッド	-11.1512
カナ	-11.1514
戦った	-11.1515
牧場	-11.1516
尖	-11.1518
落ちた	-11.1518
中川	-11.1518
地を	-11.1518
放棄	-11.1519
CR	-11.1519
この事件	-11.1521
っていたが	-11.1522
グレード	-11.1523
IA	-11.1524
を記録	-11.1525
巡洋艦	-11.1528
ターボ	-11.1528
にならない	-11.1529
1500	-11.1533
ムシ	-11.1535
ではないが	-11.1535
圓	-11.1537
を維持し	-11.1539
晴れ	-11.154
まさ	-11.154
サークル	-11.1543
を挙げ	-11.1543
に対応する	-11.1544
おうと	-11.1544
アイランド	-11.1545
山陽	-11.1545
越し	-11.1545
青森	-11.1547
記す	-11.155
條	-11.1551
に貢献	-11.1552
ウォーター	-11.1553
融合	-11.1557
スロー	-11.1561
全員が	-11.1561
予約	-11.1562
▁そのうち	-11.1563
中国語	-11.1564
に移転	-11.1564
面を	-11.1564
ちょ	-11.1564
家で	-11.1567
サッカー選手	-11.1568
を切り	-11.1569
スイッチ	-11.157
物が	-11.1571
ob	-11.1571
絶え	-11.1571
力で	-11.1572
さくら	-11.1572
ったもの	-11.1573
多様な	-11.1573
バット	-11.1575
薬物	-11.1575
チップ	-11.1577
スン	-11.1577
誤り	-11.1578
を集め	-11.1579
合唱	-11.158
爲	-11.1582
用いられる	-11.1583
妨害	-11.1584
と改名	-11.1585
ダブルス	-11.1585
内蔵	-11.1587
建築物	-11.1588
手掛け	-11.1589
ポケット	-11.1592
都市圏	-11.1595
海底	-11.1595
判明	-11.1595
に位置している	-11.1596
衆議院	-11.1597
た後	-11.1599
バウ	-11.1601
▁まさ	-11.1603
落語	-11.1603
秩序	-11.1603
▁天	-11.1603
授	-11.1604
制作された	-11.1606
牽引	-11.1609
港湾	-11.161
郡内	-11.161
▁Ro	-11.1611
暇	-11.1611
通りに	-11.1611
へい	-11.1612
ばかりで	-11.1612
順次	-11.1613
調理	-11.1614
中退	-11.1614
WBC	-11.1614
アメリカで	-11.1615
○○	-11.1617
▁La	-11.162
ぎょう	-11.162
加賀	-11.162
▁現代	-11.1621
▁ここでは	-11.1623
或	-11.1623
爾	-11.1625
食堂	-11.1625
延期	-11.1626
おる	-11.1627
侵略	-11.1628
を学んだ	-11.1629
斜	-11.1631
云つた	-11.1632
抑え	-11.1634
停車	-11.1636
の子孫	-11.1636
ついで	-11.1637
ささ	-11.1639
鼠	-11.1639
▁アル	-11.164
あつ	-11.1641
書店	-11.1642
科学的	-11.1643
正確に	-11.1644
現存する	-11.165
新聞社	-11.1653
西方	-11.1653
れい	-11.1654
家老	-11.1657
鎌倉時代	-11.1658
のあいだ	-11.1658
はありません	-11.1659
せき	-11.1659
任期	-11.1659
会津	-11.166
最古の	-11.166
エラ	-11.1661
▁このうち	-11.1662
残された	-11.1662
真理	-11.1665
窮	-11.1665
アマ	-11.1665
を設け	-11.1668
種々	-11.167
打ち上げ	-11.167
大戦	-11.1671
キリ	-11.1674
戦時	-11.1675
ほとんどが	-11.1676
フランス軍	-11.1676
に落ち	-11.1677
世界に	-11.168
主役	-11.1682
駈け	-11.1685
少佐	-11.1685
技師	-11.1685
を舞台に	-11.1685
所領	-11.1686
もあるが	-11.1686
はアメリカ合衆国	-11.169
ーラ	-11.169
餅	-11.1692
と主張した	-11.1692
に勤務	-11.1693
來た	-11.1695
を広げ	-11.1697
があつた	-11.1699
という名前	-11.1702
永遠	-11.1703
食べる	-11.1705
1918	-11.1706
しみ	-11.1708
哨戒	-11.1709
政府が	-11.171
薄い	-11.1711
盗塁	-11.1712
返還	-11.1712
一時的に	-11.1715
くない	-11.1718
の長男	-11.1718
をかけた	-11.1718
ナム	-11.1718
付近で	-11.1718
へ行って	-11.1719
ユーロ	-11.172
av	-11.172
あなたの	-11.172
版が	-11.172
改め	-11.1721
番目	-11.1721
熊野	-11.1723
十九	-11.1724
わたしは	-11.1725
によつて	-11.1727
青木	-11.1728
ひどい	-11.1728
出席	-11.1731
IG	-11.1732
1923	-11.1733
行つた	-11.1733
ないで	-11.1733
AB	-11.1733
求め	-11.1736
おいた	-11.174
作画	-11.1742
期間は	-11.1742
今日の	-11.1744
種子	-11.1744
鳩	-11.1745
削	-11.1745
塞	-11.1746
倫理	-11.1747
退役	-11.1747
した上で	-11.1749
ベンチ	-11.1751
今度	-11.1752
りして	-11.1753
浜松	-11.1756
進み	-11.1756
いし	-11.1757
役員	-11.1757
徒歩	-11.1758
スプ	-11.1759
されたため	-11.176
賛	-11.1761
tra	-11.1762
講座	-11.1764
ってくる	-11.1765
▁1962	-11.1765
ことが多く	-11.1765
▁第一	-11.1765
実施された	-11.1765
幼稚園	-11.1768
ich	-11.177
妙な	-11.1771
とは別に	-11.1771
股	-11.1773
大勢	-11.1776
が悪い	-11.1776
励	-11.1777
会談	-11.1777
を卒業	-11.1778
共同体	-11.1779
ゼー	-11.178
出場した	-11.1782
祥	-11.1782
ベール	-11.1783
役に	-11.1783
シカ	-11.1783
受け入れ	-11.1784
イング	-11.1785
女の子	-11.1786
がほとんど	-11.1787
背番号	-11.1787
毎回	-11.1788
を使用している	-11.1789
くも	-11.1792
近くの	-11.1793
充実	-11.1793
たとえ	-11.1793
を行って	-11.1794
面白	-11.1794
暑	-11.1796
して居る	-11.1796
債	-11.1797
▁以降	-11.1797
順序	-11.1798
万石	-11.1799
▁Ar	-11.18
プラットフォーム	-11.1801
交際	-11.1802
▁Al	-11.1803
只	-11.1804
休日	-11.1805
以	-11.1808
活性化	-11.1809
時間を	-11.1815
世の中	-11.1815
ブリッジ	-11.1816
シャルル	-11.1819
存在し	-11.182
ニール	-11.1824
正教会	-11.1824
に成功	-11.1826
裾	-11.1827
大公	-11.1827
緊張	-11.1827
ロープ	-11.1828
後世	-11.1828
学び	-11.1831
初期に	-11.1831
商店街	-11.1833
所有者	-11.1835
ヴォー	-11.1835
まゝ	-11.1836
ピーク	-11.1837
ぞう	-11.1837
甲府	-11.1838
田町	-11.184
萩	-11.184
揺	-11.1841
編集者	-11.1841
重大な	-11.1842
図書	-11.1845
しむ	-11.1847
性的	-11.1848
フジ	-11.1848
▁[	-11.1849
たまま	-11.1849
大学名誉教授	-11.1849
明確に	-11.1849
掘り	-11.1849
トライ	-11.185
何とか	-11.185
バルセロナ	-11.1852
スポット	-11.1853
無人	-11.1853
商売	-11.1856
ice	-11.1856
楽章	-11.1857
In	-11.1857
遅く	-11.1859
を含めて	-11.1859
北区	-11.186
数を	-11.186
二丁目	-11.186
対処	-11.186
こゝ	-11.1863
人から	-11.1863
いけない	-11.1864
変数	-11.1864
所得	-11.1864
桑	-11.1865
焦	-11.1865
併用	-11.1867
Do	-11.187
ボロ	-11.1873
が盛ん	-11.1874
わせ	-11.1875
心理学	-11.1875
驚き	-11.1876
集会	-11.1877
元来	-11.1877
妖怪	-11.1878
試合に出場し	-11.1879
を追加	-11.1881
を設立し	-11.1883
依	-11.1883
ついている	-11.1883
De	-11.1883
作品に	-11.1885
期限	-11.1886
色が	-11.1886
を聞いた	-11.1886
ベッ	-11.1887
イド	-11.1888
創建	-11.1888
騎乗	-11.1891
短期間	-11.1893
はさらに	-11.1893
漂	-11.1894
禄	-11.1896
su	-11.1897
マンション	-11.1897
国土	-11.1897
をベースに	-11.19
に出た	-11.19
マツ	-11.1901
end	-11.1902
ect	-11.1904
外れ	-11.1906
符	-11.1906
マスク	-11.1906
批評家	-11.1907
が続いた	-11.1909
ことが出来る	-11.1909
バイエルン	-11.1909
なければならぬ	-11.1911
財務	-11.1912
焼け	-11.1913
運輸	-11.1914
出される	-11.1914
胤	-11.1915
フィラデルフィア	-11.1915
殊に	-11.1915
個性	-11.1916
はん	-11.1916
1919	-11.1918
の原因	-11.1922
ファイ	-11.1922
苦しい	-11.1922
予防	-11.1924
合衆国	-11.1926
その中で	-11.1926
書類	-11.1929
世界観	-11.1929
たゞ	-11.193
大学大学院	-11.193
というものは	-11.193
電圧	-11.1931
該当	-11.1931
ることが	-11.1933
メジャーデビュー	-11.1934
野生	-11.1934
襟	-11.1934
入る	-11.1935
増え	-11.1935
こん	-11.1936
格子	-11.1936
ようにして	-11.1936
知ら	-11.1938
1922	-11.1938
流れる	-11.1939
駿	-11.1942
部が	-11.1943
八五郎	-11.1946
事も	-11.1946
ラック	-11.1947
失われ	-11.1948
セーブ	-11.1948
レーン	-11.1952
ファル	-11.1953
に従事	-11.1956
郡は	-11.1956
地で	-11.1957
見物	-11.1958
期生	-11.1961
のではないかと	-11.1961
選手が	-11.1962
賊	-11.1962
造船所	-11.1964
排	-11.1964
小松	-11.1964
憂	-11.1966
誤解	-11.1966
▁1961	-11.1967
延伸	-11.1967
四方	-11.1967
ハルト	-11.1969
等が	-11.1971
を経由して	-11.1971
降下	-11.1971
制約	-11.1972
ワル	-11.1972
風が	-11.1974
添え	-11.1975
石井	-11.1977
頸	-11.1977
橘	-11.1978
▁専門は	-11.1978
変更された	-11.1978
終わった	-11.1979
もう一度	-11.1982
坑	-11.1983
たちを	-11.1983
施工	-11.1984
▁第二次世界大戦	-11.1986
▁アメリカ合衆国	-11.1987
三井	-11.1988
住む	-11.1989
も同じ	-11.1991
イスラーム	-11.1992
個々の	-11.1992
に就いて	-11.1992
短期大学	-11.1994
北条	-11.1996
ることになる	-11.1997
モント	-11.1998
風呂	-11.1999
部分を	-11.1999
タム	-11.2
ven	-11.2001
運び	-11.2001
を発表し	-11.2002
年以降は	-11.2004
内戦	-11.2005
に設置された	-11.2006
に至って	-11.2007
基本的に	-11.2008
壊滅	-11.201
暮れ	-11.201
をとった	-11.2011
トール	-11.2013
が含まれる	-11.2014
けない	-11.2014
親友	-11.2016
を起こした	-11.2018
番地	-11.2019
陶	-11.2019
▁1959	-11.202
レンジャー	-11.2021
させている	-11.2023
農家	-11.2023
加速	-11.2024
不振	-11.2025
ブロー	-11.2025
を振り	-11.2025
東急	-11.2025
凶	-11.2026
GE	-11.2027
時間は	-11.2028
撮影所	-11.2028
などにより	-11.2028
あれは	-11.2031
ないまま	-11.2032
ng	-11.2033
が可能である	-11.2034
以下のように	-11.2035
保安	-11.2036
に所属し	-11.2036
てゆく	-11.2039
1902	-11.204
ord	-11.204
は存在しない	-11.204
ストップ	-11.204
イタリア共和国	-11.2041
抑制	-11.2042
召	-11.2042
次いで	-11.2044
お金	-11.2045
の中を	-11.2048
勝手	-11.2048
ライヴ	-11.2048
テオ	-11.205
苗	-11.2051
考慮	-11.2051
グラフィック	-11.2051
暁	-11.2052
汚染	-11.2053
愛知	-11.2053
は後に	-11.2054
おや	-11.2054
連れて	-11.2054
を探し	-11.2054
は不	-11.2055
単純な	-11.2058
を感じた	-11.2058
ていたため	-11.2059
ことにした	-11.206
カーブ	-11.2061
を要する	-11.2061
尉	-11.2062
跡地	-11.2062
ことができ	-11.2062
正しく	-11.2062
エッ	-11.2064
ようなもの	-11.2064
に敗れ	-11.2065
最初は	-11.2067
dy	-11.2068
気筒	-11.207
られなかった	-11.2071
歸	-11.2075
拓	-11.2075
同社の	-11.2076
如何に	-11.2077
かねて	-11.2077
色彩	-11.2079
支払い	-11.208
ick	-11.208
三男	-11.208
PlayStation	-11.2081
おまえ	-11.2084
色は	-11.2084
月下旬	-11.2087
渡す	-11.2087
腰を	-11.2088
法的	-11.2089
バレエ	-11.2089
構え	-11.2095
新作	-11.2098
LP	-11.2099
ドリーム	-11.2099
小田原	-11.2101
つち	-11.2101
1926	-11.2103
城を	-11.2104
撃墜	-11.2105
打者	-11.2105
豊かな	-11.2106
キャプテン	-11.2107
リム	-11.2108
準決勝	-11.2108
開き	-11.2109
紋章	-11.211
で構成される	-11.2111
電化	-11.2114
▁本名	-11.2119
出てくる	-11.2119
車が	-11.2124
警官	-11.2124
妊娠	-11.2125
書記	-11.2127
を組み	-11.2127
傾斜	-11.2128
ことも多い	-11.2129
を開始する	-11.2129
は不明である	-11.2133
USS	-11.2133
ならん	-11.2139
商標	-11.214
埼玉	-11.2141
驚いた	-11.2142
セブン	-11.2144
の意	-11.2147
るほど	-11.2149
に移籍した	-11.215
爺	-11.2151
ブリー	-11.2151
ウラ	-11.2153
マレーシア	-11.2155
単独で	-11.2155
心が	-11.2156
錯	-11.2157
に任命された	-11.2158
提唱	-11.2159
合わ	-11.2159
やかに	-11.2163
見られる	-11.2164
そんなに	-11.2164
市と	-11.2165
▁○	-11.2166
そこへ	-11.2167
同国	-11.2167
磐	-11.2168
水域	-11.2168
分間	-11.2169
戯曲	-11.2169
を離れ	-11.217
つる	-11.217
歌い	-11.2172
民主主義	-11.2172
与えられる	-11.2173
適切な	-11.2177
マンは	-11.2177
一年	-11.2179
本店	-11.2179
生存	-11.2181
に出場した	-11.2181
昨夜	-11.2181
ance	-11.2182
駅である	-11.2182
モバイル	-11.2183
虐殺	-11.2186
函数	-11.2187
偵察	-11.2189
サーバ	-11.2189
重力	-11.2192
胴	-11.2192
べる	-11.2193
ft	-11.2193
バイオ	-11.2195
出で	-11.2195
▁1947	-11.2197
を流れる	-11.2197
青春	-11.2199
撮	-11.2199
記した	-11.22
立法	-11.22
腫	-11.2201
間隔	-11.2201
単純	-11.2202
鎮圧	-11.2202
拘束	-11.2204
都市計画	-11.2204
没した	-11.2204
概ね	-11.2205
後藤	-11.2205
ペリ	-11.2209
悪く	-11.2209
著しく	-11.2212
北東部	-11.2212
領地	-11.2213
大使館	-11.2215
続けて	-11.2216
カントリー	-11.2216
が生まれた	-11.2216
AA	-11.2219
ニューヨーク州	-11.222
発注	-11.2221
シンボル	-11.2221
エンジンは	-11.2225
タケ	-11.2226
を重ね	-11.2229
太鼓	-11.2229
活動している	-11.223
パーツ	-11.2237
爆撃機	-11.2237
山中	-11.2238
イア	-11.2238
音楽院	-11.2242
たという	-11.2242
とくに	-11.2242
大事	-11.2244
られず	-11.2244
具体的な	-11.2248
ボイ	-11.2248
が置かれ	-11.2249
モンテ	-11.2249
ください	-11.2249
初戦	-11.2253
できるように	-11.2256
研究科	-11.2256
イラ	-11.2256
石を	-11.2257
さつ	-11.2257
周囲に	-11.2258
携帯	-11.226
テレビ東京	-11.226
実況	-11.2261
両側	-11.2262
よこ	-11.2263
日本海	-11.2264
様子を	-11.2264
川町	-11.2264
牢	-11.2266
ニカ	-11.2266
たとえば	-11.2267
景観	-11.2268
法令	-11.2268
ちら	-11.2269
挟	-11.227
大量の	-11.227
エド	-11.2273
車を	-11.2274
方法で	-11.2274
二度	-11.2275
を決める	-11.2277
過ぎる	-11.2277
NTT	-11.2278
一言	-11.228
斑	-11.228
はいずれも	-11.2282
鼓	-11.2282
といえば	-11.2283
損失	-11.2284
グラウンド	-11.2285
を唱え	-11.2285
垂直	-11.2288
保健	-11.2289
▁いや	-11.229
定められた	-11.229
私には	-11.2292
目が	-11.2293
併せて	-11.2294
尊敬	-11.2297
BL	-11.2298
に移行	-11.2301
うと	-11.2301
だけではなく	-11.2301
▁東京都	-11.2301
セントラル	-11.2305
待って	-11.2308
FIFA	-11.2311
兵力	-11.2312
ee	-11.2313
踊	-11.2314
くろ	-11.2316
山下	-11.2316
はないが	-11.2317
大幅に	-11.2318
登場し	-11.2319
海戦	-11.232
ey	-11.232
話は	-11.2321
中学生	-11.2321
ママ	-11.2322
つぎ	-11.2322
▁1958	-11.2322
ys	-11.2323
盆地	-11.2324
参加した	-11.2326
つかない	-11.2328
さんに	-11.2328
ブライアン	-11.233
チャートで	-11.233
ぐり	-11.2331
今も	-11.2331
に触れ	-11.2331
Sp	-11.2335
量が	-11.2335
ラッ	-11.2337
を相手に	-11.2339
一同	-11.2339
度に	-11.234
サス	-11.2341
バカ	-11.2342
は不明	-11.2342
惣	-11.2342
艦艇	-11.2343
物体	-11.2343
も見られる	-11.2343
道徳	-11.2346
気圧	-11.2347
行使	-11.2348
シード	-11.2348
医薬品	-11.2349
平行	-11.2349
ピンク	-11.235
ャ	-11.2354
に出演した	-11.2355
河口	-11.2359
誰が	-11.236
述べる	-11.236
角度	-11.236
▁1939	-11.2362
おん	-11.2362
搭乗	-11.2363
早期	-11.2363
▁さて	-11.2364
を使用し	-11.2365
各社	-11.2366
大抵	-11.2367
復元	-11.2367
歓	-11.2368
▁現在では	-11.2369
議会議員	-11.237
1898	-11.237
▁大阪	-11.2371
住所	-11.2372
ていること	-11.2373
せつ	-11.2374
にも関わらず	-11.2375
一面	-11.2377
ya	-11.238
アメリカ人	-11.238
FF	-11.2381
RT	-11.2383
計画は	-11.2384
形に	-11.2384
コンクリート	-11.2384
前線	-11.2385
▁夜	-11.2388
セク	-11.2388
享保	-11.239
燃焼	-11.2391
聞こえ	-11.2391
市内の	-11.2393
学年	-11.2394
の概念	-11.2394
コック	-11.2395
去り	-11.2396
和歌山県	-11.2396
ブレイ	-11.2396
することも	-11.2402
設立した	-11.2402
悲劇	-11.2403
倉庫	-11.2404
南極	-11.2404
サンド	-11.2405
稚	-11.2405
浴	-11.2407
マリオ	-11.2409
ハリウッド	-11.2409
泡	-11.2411
妙に	-11.2414
ッキ	-11.2415
付加	-11.2415
野田	-11.2416
サイクル	-11.2417
脅威	-11.2418
出され	-11.2419
俳句	-11.2421
冷却	-11.2421
湧	-11.2421
▁1948	-11.2422
教区	-11.2423
垂れ	-11.2423
が最も	-11.2423
の基礎	-11.2423
利用される	-11.2425
ハリ	-11.2426
柴	-11.2427
骨折	-11.2427
フォール	-11.2428
ことはなかった	-11.2428
時点では	-11.2429
じり	-11.2429
史跡	-11.2429
ソビエト	-11.243
を取った	-11.2432
用いる	-11.2433
が起こり	-11.2434
を聞いて	-11.2434
讃	-11.2435
珍しく	-11.2436
たれ	-11.2438
埋葬	-11.244
乗員	-11.2441
いっぱい	-11.2442
が発表され	-11.2444
を訪れた	-11.2446
顔に	-11.2448
に続いて	-11.2449
夫が	-11.245
リゾート	-11.245
ウルトラ	-11.2451
前進	-11.2455
国立公園	-11.2456
佐賀	-11.246
ています	-11.2461
ループ	-11.2461
商店	-11.2462
を越えて	-11.2463
把握	-11.2465
つである	-11.2469
を冠	-11.2471
ガイド	-11.2472
突入	-11.2473
有限	-11.2474
いても	-11.2476
Le	-11.2477
マスコミ	-11.2478
遷	-11.2478
南西部	-11.2479
磁気	-11.2481
であるか	-11.2483
示す	-11.2484
慶応	-11.2485
ここから	-11.2486
ことはできない	-11.2486
のほかに	-11.2486
チェック	-11.2487
書いている	-11.2487
放射	-11.2488
駅と	-11.2488
マドリード	-11.249
出土	-11.2491
mon	-11.2492
玩具	-11.2493
▁1946	-11.2493
盆	-11.2493
還元	-11.2494
COM	-11.2495
することに	-11.2495
消費者	-11.2496
長岡	-11.2497
貨	-11.25
MT	-11.2501
軍勢	-11.2501
リバー	-11.2503
行動を	-11.2505
▁1956	-11.2505
与えられた	-11.2505
レーザー	-11.2506
名人	-11.2506
があれば	-11.2507
安政	-11.2507
こんだ	-11.2507
どれ	-11.2508
設けられ	-11.2508
157	-11.2509
日本における	-11.251
食物	-11.251
を備えた	-11.251
月からは	-11.2511
を上げ	-11.2512
スクリーン	-11.2513
移管	-11.2514
演習	-11.2514
を表明した	-11.2515
劇場版	-11.2516
リッ	-11.2518
はそれを	-11.2518
怪獣	-11.2519
株主	-11.2519
ふじ	-11.2521
ますよ	-11.2522
を書く	-11.2524
自信	-11.2525
尽	-11.2526
▁よし	-11.2528
永久	-11.2529
部分に	-11.253
▁Le	-11.2531
砲塔	-11.2531
ach	-11.2532
のごとく	-11.2534
スが	-11.2534
版は	-11.2538
Ju	-11.2538
ace	-11.2538
高校時代	-11.2538
障害者	-11.2539
使われていた	-11.2541
▁1920	-11.2542
仕組み	-11.2542
機は	-11.2542
バタ	-11.2544
回答	-11.2545
エディ	-11.2546
は基本的に	-11.2547
水中	-11.2547
が起こった	-11.2548
発売した	-11.2548
の多くが	-11.2549
日放送	-11.255
出口	-11.255
キシ	-11.255
そもそも	-11.2553
推移	-11.2553
呑	-11.2555
づか	-11.2556
ギル	-11.2556
霜	-11.2556
に本社を置く	-11.2557
就役	-11.2557
このとき	-11.2557
ner	-11.2558
機能を	-11.2558
頁	-11.2559
に出場し	-11.256
</	-11.2563
を兼ね	-11.2563
ABC	-11.2565
アリーナ	-11.2565
リョ	-11.2565
に依	-11.2567
同日	-11.2567
ica	-11.2568
英語で	-11.2572
役で	-11.2573
宴	-11.2575
1901	-11.2578
レーション	-11.2579
ませぬ	-11.2579
偉大な	-11.2581
過程で	-11.2586
坂本	-11.2589
サウルス	-11.2589
lu	-11.259
軍と	-11.2591
りません	-11.2592
職務	-11.2592
なさる	-11.2593
記述する	-11.2594
廣	-11.2595
プロテスタント	-11.2596
学長	-11.2596
法第	-11.2598
伺	-11.2599
集まり	-11.26
果実	-11.26
照明	-11.26
南米	-11.26
が入る	-11.2601
曳	-11.2601
する際に	-11.2601
壺	-11.2602
人として	-11.2602
われて	-11.2602
期には	-11.2603
わせる	-11.2604
なんです	-11.2606
行か	-11.2608
タラ	-11.2609
形成された	-11.2611
宮城	-11.2611
生きる	-11.2611
HA	-11.2612
の発展	-11.2612
らく	-11.2613
紐	-11.2614
トマス	-11.2616
旗本	-11.2616
▁Be	-11.2617
五月	-11.2618
CC	-11.2619
Ph	-11.2621
出來	-11.2621
ことになり	-11.2622
三木	-11.2623
愛媛県	-11.2624
▁THE	-11.2624
▁*	-11.2625
が存在した	-11.2625
の変化	-11.2625
に昇進	-11.2625
何だか	-11.2626
方面へ	-11.2627
隊は	-11.2628
どちらも	-11.2629
があるため	-11.263
活発	-11.2631
結果的に	-11.2631
えば	-11.2632
めき	-11.2634
oc	-11.2634
▁1955	-11.2635
レビュー	-11.2636
テキスト	-11.2636
あんた	-11.2637
Ma	-11.2638
ことによる	-11.2639
ポケモン	-11.2642
誕生した	-11.2642
タク	-11.2642
シャツ	-11.2643
曾	-11.2644
競合	-11.2644
火星	-11.2646
本町	-11.2647
は今	-11.2647
▁An	-11.2648
必要性	-11.2648
ヶ所	-11.2649
まっ	-11.2649
を開設	-11.2649
尋ね	-11.265
並びに	-11.2651
討伐	-11.2651
熱帯	-11.2651
シナ	-11.2654
ちゅうがっこう	-11.2654
コレ	-11.2654
はしない	-11.2655
感じた	-11.2659
所長	-11.2659
等に	-11.2659
さっき	-11.266
ina	-11.266
かれる	-11.266
取扱	-11.2661
ハンド	-11.2661
我々は	-11.2663
1896	-11.2664
を設置し	-11.2664
デビューした	-11.2664
場合が多い	-11.2665
年頃に	-11.2665
向かい	-11.2665
1921	-11.2665
線の駅である	-11.2665
越前	-11.2665
なみ	-11.2667
オオ	-11.267
として活躍	-11.2672
強度	-11.2675
倶楽部	-11.2675
クタ	-11.2676
語っている	-11.2677
登記	-11.2677
着用	-11.2678
覚悟	-11.2679
釈放	-11.2679
旅館	-11.2681
▁1954	-11.2681
過ぎた	-11.2681
広大な	-11.2683
再開発	-11.2683
路線バス	-11.2683
迎えた	-11.2686
販売されている	-11.2689
調達	-11.2691
光景	-11.2692
になってから	-11.2693
セス	-11.2695
当り	-11.2695
増加した	-11.2696
▁[#	-11.2697
はすでに	-11.2697
代々	-11.2702
ぐら	-11.2703
プライ	-11.2703
が運営する	-11.2704
香川県	-11.2708
はら	-11.271
話した	-11.2712
排除	-11.2713
せぬ	-11.2714
クイーン	-11.2714
じょ	-11.2715
記されている	-11.2715
プリンス	-11.2715
ドイツ人	-11.2716
エム	-11.2717
そろ	-11.2717
ギタリスト	-11.2719
所へ	-11.2719
近畿	-11.272
すく	-11.2721
人以上	-11.2722
接続する	-11.2722
支流	-11.2722
タキ	-11.2724
で敗れ	-11.2724
違法	-11.2724
重賞	-11.2724
採用されている	-11.2725
規	-11.2725
慣れ	-11.2726
ある日	-11.2726
連載された	-11.2728
して来た	-11.2729
収録された	-11.273
所謂	-11.273
選考	-11.273
周囲の	-11.273
したものの	-11.273
ウイ	-11.2732
庶民	-11.2733
だす	-11.2733
決心	-11.2734
問題が	-11.2736
箱根	-11.2737
藩士	-11.2737
伝達	-11.2737
永禄	-11.2738
甚だ	-11.2738
に登場した	-11.274
ぶら	-11.274
▁六	-11.2742
甲子園	-11.2742
かも	-11.2742
参謀	-11.2743
打たれ	-11.2744
実質	-11.2744
出店	-11.2746
ッセ	-11.2747
であろうか	-11.2747
使用した	-11.2752
を集めた	-11.2756
返事	-11.2757
ボルト	-11.2762
砂漠	-11.2762
点を	-11.2762
北軍	-11.2763
はかなり	-11.2763
広がり	-11.2764
検証	-11.2766
KI	-11.2767
元素	-11.2768
出入り	-11.2768
に改名	-11.2768
引き継がれ	-11.2768
宛	-11.2769
の境界	-11.277
で第	-11.277
昼間	-11.2771
ございません	-11.2771
自体が	-11.2774
Ca	-11.2774
出雲	-11.2775
際は	-11.2775
続けている	-11.2776
と表記	-11.2777
CE	-11.2777
言つた	-11.2779
公社	-11.278
168	-11.278
▁ゲーム	-11.2781
三国	-11.2781
名前を	-11.2781
ばか	-11.2782
砲兵	-11.2783
責	-11.2783
聞え	-11.2785
仮面ライダー	-11.2787
時分	-11.2787
so	-11.2787
方法は	-11.2789
来ている	-11.2789
燃	-11.279
ps	-11.2791
くなり	-11.2791
年連続で	-11.2796
水が	-11.2797
日本でも	-11.2797
開局	-11.2797
マルクス	-11.2797
題材	-11.2798
を命じ	-11.2798
ジア	-11.2798
芸名	-11.2799
したもので	-11.2799
逢	-11.28
NT	-11.28
直後の	-11.2802
げた	-11.2804
弾薬	-11.2805
を立ち上げ	-11.2806
僕が	-11.2806
よかった	-11.2806
に敗れた	-11.281
トゥル	-11.281
特色	-11.2811
仮定	-11.2812
コミューン	-11.2812
ボウ	-11.2813
が残っている	-11.2813
▁Sh	-11.2813
近藤	-11.2814
日をもって	-11.2816
パーセント	-11.2817
相模	-11.2817
コント	-11.2818
頂点	-11.2819
東日本大震災	-11.2821
することによって	-11.2821
に任ぜられ	-11.2821
に手を	-11.2822
四つ	-11.2823
相対	-11.2826
知られた	-11.2826
を続ける	-11.2827
間違	-11.2827
スケ	-11.2827
もあったが	-11.2828
ことだった	-11.2829
らせて	-11.2831
ジェン	-11.2831
革新	-11.2832
350	-11.2832
注文	-11.2833
▁天正	-11.2835
1914	-11.2837
独り	-11.2837
始まった	-11.2837
第五	-11.2838
告白	-11.2839
耕	-11.284
に登場	-11.2842
新設された	-11.2842
者も	-11.2842
外見	-11.2843
シングルス	-11.2843
祖先	-11.2845
たしかに	-11.2845
食料	-11.2845
であるから	-11.2846
点が	-11.2846
皇子	-11.2851
TD	-11.2854
覧	-11.2855
哲学者	-11.2855
成功した	-11.2856
IL	-11.2857
浦和	-11.2858
年代後半	-11.2859
土壌	-11.2859
をあげた	-11.2861
お母さん	-11.2861
南アフリカ	-11.2864
を設立した	-11.2865
棺	-11.2865
葬儀	-11.2866
除去	-11.2866
美しさ	-11.2869
っていった	-11.2869
伏見	-11.2869
HP	-11.287
天才	-11.287
利用されている	-11.287
経営者	-11.2872
を助け	-11.2872
導入された	-11.2872
専属	-11.2873
以内	-11.2874
タカ	-11.2874
ラート	-11.2876
Cl	-11.2877
生きて	-11.2877
南軍	-11.2877
をつく	-11.2878
互	-11.2879
が収録されている	-11.2879
壁に	-11.2881
謝罪	-11.2881
ラフ	-11.2882
優勝を果たした	-11.2885
ライダー	-11.2885
を通り	-11.2885
南京	-11.2886
クレー	-11.2887
厳しく	-11.2892
1897	-11.2892
を目的とした	-11.2893
柿	-11.2893
と信じ	-11.2895
を変え	-11.2896
がなされた	-11.2896
用として	-11.2898
原型	-11.2899
策定	-11.2901
iv	-11.2902
階建て	-11.2902
if	-11.2904
CG	-11.2904
賃	-11.2904
tic	-11.2905
債務	-11.2906
▁但し	-11.2907
豊田	-11.2907
に影響	-11.291
代数	-11.2913
不要	-11.2913
シュート	-11.2916
と言ふ	-11.2916
チャンス	-11.2917
攻撃を	-11.2917
延び	-11.2918
si	-11.2918
京阪	-11.2918
ベクトル	-11.2921
母音	-11.2921
常識	-11.2921
考古学	-11.2922
描き	-11.2923
号車	-11.2923
らに	-11.2923
ヨーク	-11.2924
アンナ	-11.2925
と云った	-11.2926
キム	-11.2927
憤	-11.2928
トリオ	-11.2928
国民党	-11.2929
圭	-11.2931
理由で	-11.2931
スペイン語	-11.2932
他社	-11.2932
しも	-11.2933
かま	-11.2934
現存	-11.2934
に於いて	-11.2934
175	-11.2935
惜し	-11.2936
勇気	-11.2938
驚	-11.2939
モチーフ	-11.2939
うえで	-11.2941
の増加	-11.2942
キハ	-11.2944
成田	-11.2945
繁栄	-11.2945
BGM	-11.2945
此の	-11.2947
に昇格	-11.2948
法廷	-11.295
ear	-11.295
茶屋	-11.2951
ニル	-11.2952
私達	-11.2957
フォース	-11.296
の首都	-11.2962
ピエール	-11.2962
が現れ	-11.2964
逮捕された	-11.2964
ますます	-11.2965
表彰	-11.2965
種牡馬	-11.2966
棋	-11.2969
文学部	-11.2969
眼鏡	-11.297
軽く	-11.297
1899	-11.297
所持	-11.2971
通学	-11.2972
にかけ	-11.2973
事から	-11.2973
のようなもの	-11.2975
倭	-11.2975
をなす	-11.2977
年時点で	-11.2977
労働組合	-11.298
市役所	-11.298
つけられ	-11.2981
突破	-11.2982
取り組み	-11.2982
貴重な	-11.2982
起こる	-11.2983
ばれ	-11.2983
を指し	-11.2983
敵対	-11.2984
声明	-11.2984
改編	-11.2985
ところが	-11.2989
したとき	-11.2989
読む	-11.2989
1912	-11.299
▁【	-11.299
▁清	-11.2992
万枚	-11.2993
正直	-11.2993
トゥス	-11.2995
光が	-11.2996
検事	-11.2997
編集長	-11.2998
せよ	-11.3001
インディ	-11.3001
勿論	-11.3002
▁白	-11.3003
小路	-11.3004
右翼	-11.3005
までの間	-11.3008
目で	-11.3009
HE	-11.3009
セガ	-11.3012
β	-11.3013
関節	-11.3014
sion	-11.3014
は自分の	-11.3015
ージュ	-11.3016
最後まで	-11.3017
美人	-11.3018
大学文学部	-11.302
父は	-11.3021
ペース	-11.3021
絶滅	-11.3021
精度	-11.3021
どちらか	-11.3021
フットボール	-11.3022
と語った	-11.3023
以後は	-11.3023
メラ	-11.3024
幽	-11.3025
ぎり	-11.3025
三重	-11.3026
広報	-11.3027
笑って	-11.3028
通し	-11.3029
ヴィチ	-11.3029
−	-11.3029
ゲージ	-11.3032
を出て	-11.3032
テール	-11.3033
出典	-11.3035
MB	-11.3035
趣	-11.3035
却	-11.3036
がね	-11.3036
ris	-11.3038
換え	-11.3039
他方	-11.3041
ベア	-11.3042
さく	-11.3043
ue	-11.3044
いっしょ	-11.3047
なければならなかった	-11.3048
関係は	-11.3051
ダニエル	-11.3052
じゃあ	-11.3054
慕	-11.3054
小学生	-11.3055
以内に	-11.3057
をいう	-11.3059
教科書	-11.306
ルカ	-11.306
トニー	-11.3061
は決して	-11.3061
と結婚し	-11.3061
機関銃	-11.3061
ポリス	-11.3063
ain	-11.3064
コミュニケーション	-11.3065
art	-11.3066
ヴィア	-11.3066
二軍	-11.3067
ンダ	-11.3069
識別	-11.3069
体育館	-11.307
ファンタジー	-11.307
▁二人は	-11.3072
単一	-11.3073
報酬	-11.3074
は比較的	-11.3074
衝	-11.3074
アドレス	-11.3075
だけでも	-11.3075
凡	-11.3076
門下	-11.3076
癒	-11.3076
の称号	-11.3077
落下	-11.3077
沿いに	-11.3079
を使用して	-11.3079
ence	-11.3079
さなかった	-11.308
育った	-11.308
だけである	-11.308
陸上競技	-11.3083
予告	-11.3084
望み	-11.3085
警告	-11.3087
並ぶ	-11.3088
▁以前は	-11.3088
メアリー	-11.3089
経歴	-11.3089
徳川家	-11.309
1910	-11.3092
パーティー	-11.3092
ミナ	-11.3093
老朽化	-11.3096
に着手	-11.3096
レク	-11.3097
ite	-11.3099
直ぐ	-11.3099
マイン	-11.31
テキサス	-11.3102
大ヒット	-11.3102
レア	-11.3102
醜	-11.3102
にほん	-11.3104
上は	-11.3105
配下	-11.3106
とされていた	-11.3106
ことができなかった	-11.3107
が描かれている	-11.3107
するとともに	-11.3109
端に	-11.3109
していたため	-11.3109
の前身	-11.3111
放送される	-11.3113
ソンは	-11.3113
レイク	-11.3115
それ以外の	-11.3115
タイトルは	-11.3116
どろ	-11.3116
体は	-11.3117
完結	-11.3117
投与	-11.3118
有る	-11.3118
東芝	-11.3119
顔が	-11.3121
せしめ	-11.3124
こともできる	-11.3125
★	-11.3125
陣営	-11.3126
線で	-11.3128
ダイヤモンド	-11.3129
産地	-11.313
port	-11.3131
ウェールズ	-11.3135
ボリ	-11.3135
を収録した	-11.314
藤田	-11.3141
クーデター	-11.3141
曹操	-11.3142
立た	-11.3143
世紀から	-11.3146
CPU	-11.3147
ままに	-11.3147
をとって	-11.3148
彼らが	-11.315
拍子	-11.315
小笠原	-11.3151
▁又	-11.3152
を置いて	-11.3152
ったら	-11.3153
定員	-11.3154
曲は	-11.3155
ビーム	-11.3156
とも呼ばれ	-11.3158
景気	-11.316
怠	-11.316
濁	-11.316
窪	-11.3161
ゴス	-11.3162
pa	-11.3162
電流	-11.3162
せない	-11.3164
告	-11.3166
クリー	-11.3166
ess	-11.3166
▁1952	-11.3167
モンド	-11.3168
会合	-11.3169
されておらず	-11.3169
改訂	-11.317
浮上	-11.317
半年	-11.3171
代表取締役社長	-11.3171
ザル	-11.3174
血液	-11.3175
会社である	-11.3176
▁1937	-11.3176
az	-11.3176
皇太子	-11.3177
米ドル	-11.3178
車で	-11.3179
und	-11.3179
武家	-11.3179
ワークス	-11.318
チャンピオンシップ	-11.318
日野	-11.3181
事業を	-11.3181
船長	-11.3183
霞	-11.3183
を搭載し	-11.3183
1917	-11.3184
てくれた	-11.3187
をそのまま	-11.3189
IBM	-11.3191
のみを	-11.3192
位置づけ	-11.3192
ハーフ	-11.3194
アントニオ	-11.3194
斯	-11.3196
大学卒業後	-11.3197
阿部	-11.3198
連中	-11.3198
某	-11.3199
結果は	-11.3199
乗降	-11.3203
進め	-11.3203
データベース	-11.3205
ものが多い	-11.3207
掛けて	-11.3207
LIVE	-11.3208
ないので	-11.3208
墜落	-11.3209
無効	-11.3211
競輪	-11.3211
スパー	-11.3212
部屋に	-11.3212
野郎	-11.3214
浄	-11.3216
京都市	-11.3217
去った	-11.3218
んですよ	-11.3218
定め	-11.3219
中盤	-11.322
リトル	-11.3222
を実施	-11.3224
UFC	-11.3224
ショット	-11.3224
噴火	-11.3225
を思い	-11.3225
薫	-11.3225
福田	-11.3226
障子	-11.3229
んですか	-11.323
プレミアリーグ	-11.3231
年後	-11.3231
日本映画	-11.3231
同名の	-11.3231
映画館	-11.3232
ぞく	-11.3232
サッ	-11.3232
あなたが	-11.3233
ゾー	-11.3235
撃沈	-11.3236
サリ	-11.3237
設置された	-11.3238
有り	-11.3238
胴体	-11.3238
郷土	-11.324
問い	-11.324
神奈川	-11.3241
再放送	-11.3246
は中国	-11.3249
ウィリアムズ	-11.3249
SK	-11.3251
日米	-11.3252
まつり	-11.3252
ec	-11.3252
撫	-11.3253
もらった	-11.3253
バリー	-11.3254
▁愛称は	-11.3255
に対しても	-11.3257
どうぞ	-11.3258
1895	-11.3259
実質的に	-11.3259
っぽ	-11.3259
移行	-11.326
奮	-11.326
顏	-11.326
持っている	-11.326
さて	-11.3262
バイク	-11.3262
嚢	-11.3264
リカ	-11.3264
ジル	-11.3265
▁1953	-11.3266
げて	-11.3266
有料	-11.3268
1870	-11.327
内容を	-11.327
VI	-11.327
ばた	-11.3271
同型	-11.3271
るようになり	-11.3273
鱗	-11.3274
働いた	-11.3275
っていて	-11.3275
木材	-11.3276
を残す	-11.3276
学ぶ	-11.3276
コンピューター	-11.3277
▁1949	-11.3278
販	-11.3279
通っている	-11.3279
リアル	-11.328
1871	-11.328
伝えた	-11.3281
ニエ	-11.3282
情勢	-11.3286
配慮	-11.3287
ぼんやり	-11.3288
ind	-11.3289
ラッシュ	-11.329
山に	-11.329
1880	-11.3292
忠実	-11.3292
ふさ	-11.3293
鑑賞	-11.3293
ないが	-11.3293
▁1957	-11.3294
場に	-11.3294
ざん	-11.3295
リレー	-11.3296
を演じた	-11.3297
綴	-11.3297
を終えた	-11.3298
反撃	-11.3298
スケート	-11.3301
世と	-11.3302
アシスタント	-11.3302
左手	-11.3303
あまりに	-11.3303
適応	-11.3304
長は	-11.3304
参加している	-11.3307
福井県	-11.3307
ものも	-11.3308
大量に	-11.331
飯田	-11.3312
の両方	-11.3313
歳から	-11.3314
折れ	-11.3314
起訴	-11.3315
影響を受けた	-11.3315
と比べて	-11.3317
阻止	-11.3319
を採用している	-11.332
首位	-11.332
と同じように	-11.332
げる	-11.332
が見え	-11.332
PO	-11.3321
呪	-11.3322
彼女を	-11.3324
可愛	-11.3327
の一部が	-11.3328
治世	-11.3328
申し出	-11.3329
を帯び	-11.3329
行っていた	-11.333
斜面	-11.333
送られ	-11.3331
率が	-11.3332
カ国	-11.3332
答えた	-11.3332
一気に	-11.3333
異なり	-11.3334
省略	-11.3335
土木	-11.3335
ではありません	-11.3338
天神	-11.3341
▁Bo	-11.3341
神殿	-11.3342
ダス	-11.3342
を強く	-11.3343
砂糖	-11.3344
過剰	-11.3346
教徒	-11.3347
下位	-11.3347
最小	-11.3349
の方に	-11.3349
切られ	-11.335
分かれ	-11.335
苦しみ	-11.335
その人	-11.3351
放送されていた	-11.3351
▁私の	-11.3352
千人	-11.3352
オロ	-11.3353
いな	-11.3353
検定	-11.3354
樹立	-11.3354
人口約	-11.3356
を浴び	-11.3357
に行き	-11.3358
同士の	-11.3358
ダーク	-11.3358
が無く	-11.3359
▁そういう	-11.336
一度も	-11.336
看	-11.3361
q	-11.3361
大聖堂	-11.3363
再会	-11.3363
駆逐隊	-11.3364
ロシア語	-11.3364
盛岡	-11.3367
ゑ	-11.3367
仮説	-11.3368
められ	-11.337
音響	-11.3371
ボブ	-11.3372
閲覧	-11.3373
復讐	-11.3373
好意	-11.3379
ik	-11.3381
ジング	-11.3381
続いている	-11.3382
稼働	-11.3383
アメリカでは	-11.3383
ッキー	-11.3384
PP	-11.3386
AFC	-11.3386
ツォ	-11.3387
ったが	-11.3388
切る	-11.3389
は常に	-11.339
を奪われ	-11.3392
と並んで	-11.3393
親交	-11.3393
出身者	-11.3395
るようになる	-11.3395
技能	-11.3396
に使われる	-11.3398
レオン	-11.34
▁ああ	-11.3402
日の対	-11.3403
市販	-11.3404
シロ	-11.3405
川に	-11.3406
ニューヨーク市	-11.3407
ブス	-11.3407
対空	-11.3408
ヴェネツィア	-11.3409
を再	-11.341
学科卒業	-11.341
つけられた	-11.3411
前回	-11.3412
代行	-11.3413
ストー	-11.3413
評議会	-11.3414
石川県	-11.3416
▁略称は	-11.3416
ものではなく	-11.3416
傳	-11.3417
安全保障	-11.3419
NI	-11.342
想い	-11.3421
こうして	-11.3424
バス停	-11.3425
戦死した	-11.3428
お茶	-11.3428
ベス	-11.343
選挙で	-11.3431
立てる	-11.3432
發	-11.3432
va	-11.3432
を伴う	-11.3433
飲	-11.3433
連合国	-11.3434
建物は	-11.3434
カトリック教会	-11.3435
ないため	-11.3436
毎月	-11.3439
物は	-11.344
と発表した	-11.344
自分自身	-11.3441
読書	-11.3441
福山	-11.3441
制定された	-11.3441
に向って	-11.3442
を示している	-11.3442
ボーン	-11.3442
流入	-11.3443
だけを	-11.3445
島津	-11.3445
杜	-11.3445
県立	-11.3447
出品	-11.3447
異なっている	-11.3448
リと	-11.3448
招	-11.345
いながら	-11.3451
瞳	-11.3452
和歌山	-11.3453
あわ	-11.3454
暗号	-11.3455
CP	-11.3456
発動	-11.3456
初優勝	-11.3457
和解	-11.3457
は彼の	-11.3458
体操	-11.3459
開かれた	-11.346
上方	-11.346
ov	-11.3461
文政	-11.3462
優位	-11.3463
に乗	-11.3464
を建て	-11.3465
どのような	-11.3466
警視庁	-11.3467
活性	-11.3467
上った	-11.3471
海水	-11.3472
ためには	-11.3472
に掲載された	-11.3474
起用された	-11.3475
レディ	-11.3476
叫んだ	-11.3477
散歩	-11.3477
干渉	-11.3479
IR	-11.3479
救済	-11.3479
▁これまで	-11.348
作風	-11.3481
Ar	-11.3482
に転じ	-11.3482
明智	-11.3482
育ち	-11.3483
rd	-11.3483
が搭載され	-11.3484
免れ	-11.3485
捉え	-11.3485
そのため	-11.3485
ライナー	-11.3485
譲り	-11.3486
語る	-11.3486
紳士	-11.3489
学区	-11.349
憧れ	-11.3497
お話	-11.3498
就航	-11.3499
早朝	-11.35
してある	-11.35
が立ち	-11.3501
未満	-11.3504
くま	-11.3505
撰	-11.3505
年ごろ	-11.3506
大井	-11.3507
蜂	-11.3508
ことなく	-11.3508
が生じる	-11.3509
めん	-11.351
リーズ	-11.351
は底本では	-11.3511
じま	-11.3513
呼ばれ	-11.3516
ger	-11.3516
が見える	-11.3516
ドライ	-11.3517
潜水	-11.3517
させられた	-11.3518
に違いない	-11.352
どん	-11.3521
を誇る	-11.3522
こみ	-11.3522
トラン	-11.3526
と呼称	-11.3526
重要性	-11.3526
オイル	-11.3526
ロジャー	-11.3527
第二次世界大戦中	-11.3527
太刀	-11.353
笑った	-11.3531
ふう	-11.3532
されていなかった	-11.3533
ユーゴスラビア	-11.3536
セカンド	-11.3536
がち	-11.3537
ドリー	-11.3538
行こう	-11.3539
心得	-11.3539
は少ない	-11.354
合流する	-11.354
に移った	-11.3541
▁re	-11.3542
あんまり	-11.3543
を目指して	-11.3544
金銭	-11.3544
先祖	-11.3544
列車は	-11.3545
鰭	-11.3546
関係を	-11.3548
耶	-11.3549
視覚	-11.3551
ラマ	-11.3552
を担う	-11.3552
中立	-11.3552
出会った	-11.3552
回目	-11.3553
動詞	-11.3553
出会い	-11.3554
▁g	-11.3556
たちまち	-11.3556
へ移	-11.3558
力学	-11.3559
1868	-11.3559
しやすい	-11.3561
ということを	-11.3562
▁ある日	-11.3563
しているため	-11.3563
Ho	-11.3563
を見せる	-11.3564
を図った	-11.3564
開いた	-11.3565
望遠鏡	-11.3566
呉れ	-11.3568
セリエ	-11.3568
横浜市	-11.3568
も参照	-11.3568
県にある	-11.3568
Ver	-11.357
心地	-11.3571
記載されている	-11.3578
明るく	-11.3578
されることになった	-11.3579
の一員	-11.3579
と比較して	-11.3579
お互い	-11.3581
頃まで	-11.3581
PV	-11.3584
ip	-11.3585
それまでの	-11.3586
困難な	-11.3587
起きた	-11.3587
内は	-11.359
過ぎて	-11.3593
さういふ	-11.3594
子供が	-11.3594
彼等は	-11.3594
鈍	-11.3599
大地	-11.3602
のほうが	-11.3603
遼	-11.3603
法は	-11.3603
することにより	-11.3603
ということで	-11.3603
辞退	-11.3605
拭	-11.3605
ana	-11.3607
が開発した	-11.3607
する者	-11.3608
開催される	-11.3608
邸宅	-11.3609
必	-11.361
獅子	-11.3611
かき	-11.3611
で敗れた	-11.3611
社は	-11.3612
ウリ	-11.3612
普段	-11.3614
関わり	-11.3614
その結果	-11.3615
公式に	-11.3616
を手に	-11.3618
3,000	-11.362
アダム	-11.362
▁この場合	-11.3621
たて	-11.3621
わずかに	-11.3621
黒田	-11.3623
内にある	-11.3624
地域に	-11.3627
を通過し	-11.3627
に興味	-11.3628
制服	-11.3628
ものです	-11.3628
マニ	-11.3629
解雇	-11.363
に変え	-11.3632
トレー	-11.3634
の間には	-11.3634
▁ここに	-11.3635
ましく	-11.3637
欠点	-11.3637
気の毒	-11.3637
フン	-11.3638
二本	-11.3639
送られた	-11.3641
わざと	-11.3644
悲しみ	-11.3644
▁Con	-11.3646
アトランタ	-11.3647
鹿島	-11.3648
大統領選挙	-11.3648
開催されている	-11.3649
桶	-11.365
Vol	-11.3651
ダメージ	-11.3654
に分かれ	-11.3655
ah	-11.3655
に迎え	-11.3655
▁真	-11.3657
開幕戦	-11.3657
確かに	-11.3658
揺れ	-11.3659
まき	-11.3659
▁もともと	-11.366
ちゃんと	-11.3662
101	-11.3662
かという	-11.3662
結ばれ	-11.3663
様々	-11.3663
夏季	-11.3663
チル	-11.3668
日本国内で	-11.367
灰色	-11.3671
区画	-11.3671
室町時代	-11.3671
助は	-11.3671
カウ	-11.3671
ニョ	-11.3673
歴史家	-11.3674
通る	-11.3674
360	-11.3675
もとより	-11.3676
普通の	-11.3678
利用可能	-11.3678
そうと	-11.3678
まとめ	-11.3678
市域	-11.3678
こちらは	-11.3679
じる	-11.368
ッコ	-11.368
日向	-11.3681
関係が	-11.3681
野党	-11.3681
ロマ	-11.3682
大切	-11.3684
休み	-11.3685
John	-11.3688
を目的として	-11.3688
合って	-11.3689
が確認され	-11.3689
今でも	-11.3689
盾	-11.3691
を挟んで	-11.3695
両手	-11.3696
かのように	-11.3696
ern	-11.3696
ピカ	-11.3697
ガーデン	-11.3699
高知	-11.37
小僧	-11.37
ソウ	-11.37
ko	-11.3703
逮捕され	-11.3707
あか	-11.3707
増強	-11.3707
運搬	-11.3708
スマートフォン	-11.3708
文句	-11.3708
津軽	-11.3709
アキ	-11.3711
▁一般に	-11.3712
着いた	-11.3713
my	-11.3714
それ以上	-11.3714
切断	-11.3717
火を	-11.3719
あの人	-11.372
とする説	-11.372
ツイン	-11.3721
アンダー	-11.3721
そのとき	-11.3721
位相	-11.3722
リウム	-11.3724
偶	-11.3724
をもたらした	-11.3724
美しく	-11.3727
にしろ	-11.3727
にそれぞれ	-11.3728
回避	-11.3728
お前さん	-11.3731
を決め	-11.3731
皮肉	-11.3732
含む	-11.3733
ペルー	-11.3733
上述の	-11.3733
を忘れ	-11.3734
を抑え	-11.3735
アシスト	-11.3736
を与えられ	-11.3739
きわめて	-11.3739
コッ	-11.3739
は無かった	-11.374
消化	-11.3742
▁それまで	-11.3742
各地の	-11.3742
審議	-11.3743
すい	-11.3747
▁1951	-11.3749
land	-11.3749
視聴	-11.375
されてしまう	-11.375
に残る	-11.3752
並べ	-11.3754
に仕え	-11.3756
tro	-11.3756
遠慮	-11.3756
年半	-11.3756
出場機会	-11.3757
いつまでも	-11.376
番組である	-11.3762
没後	-11.3763
預	-11.3763
食糧	-11.3763
収益	-11.3765
bu	-11.3765
あわせ	-11.3765
を失	-11.3765
和歌	-11.3767
年前に	-11.3767
落ちる	-11.3768
総務	-11.377
一揆	-11.377
の次男	-11.377
ことがあり	-11.377
求められ	-11.377
招集	-11.3771
決勝戦	-11.3772
困る	-11.3773
救出	-11.3774
同行	-11.3777
発売され	-11.3778
があること	-11.378
こい	-11.378
独裁	-11.3781
怖	-11.3781
yn	-11.3782
膨	-11.3782
が来た	-11.3783
声は	-11.3784
財団法人	-11.3785
るよう	-11.3785
なくなって	-11.3786
▁春	-11.3787
らと共に	-11.3788
たびに	-11.3788
思え	-11.379
pi	-11.3791
これらは	-11.3793
を開いた	-11.3793
成績は	-11.3796
act	-11.3797
をそれぞれ	-11.3797
▁七	-11.3797
航空会社	-11.3799
愛する	-11.3801
学的	-11.3802
ともかく	-11.3804
高崎	-11.3804
得ない	-11.3805
残っていた	-11.3805
マーケット	-11.3806
引き上げ	-11.3807
進展	-11.3808
NK	-11.3809
LS	-11.381
上手	-11.3813
同人	-11.3814
怨	-11.3814
歩いた	-11.3814
ミラノ	-11.3815
を捨て	-11.3815
風俗	-11.3815
たちと	-11.3817
痛み	-11.3817
天文台	-11.3818
sk	-11.3818
かれて	-11.3819
頼み	-11.382
兩	-11.3822
百合	-11.3823
収録曲	-11.3823
ツァー	-11.3824
同地	-11.3825
祈	-11.3825
許され	-11.3828
シフト	-11.3828
形式で	-11.3829
Go	-11.3829
同作	-11.383
ブン	-11.3831
ジロ	-11.3831
爵位	-11.3832
特撮	-11.3832
すき	-11.3832
家屋	-11.3836
粛	-11.3837
アーサー	-11.3838
プロセッサ	-11.3839
科目	-11.3839
貫通	-11.3839
基金	-11.3842
採択	-11.3842
ウエスト	-11.3842
党首	-11.3843
発生した	-11.3844
十両	-11.3845
テキサス州	-11.3846
放送されている	-11.3847
置く	-11.3848
の主要	-11.3848
格闘	-11.3849
近代化	-11.3849
データを	-11.385
国産	-11.385
その名	-11.3851
言わ	-11.3852
組み込まれ	-11.3854
たのは	-11.3855
お父さん	-11.3855
まさに	-11.3855
マイナー	-11.3857
▁1938	-11.3858
余裕	-11.3858
決戦	-11.3859
缶	-11.3859
ムスリム	-11.3859
平等	-11.3859
の中心地	-11.3859
自衛隊	-11.386
創業者	-11.3861
を食べ	-11.3861
GS	-11.3863
車両は	-11.3868
佐野	-11.3868
に就任し	-11.3869
Vi	-11.3873
に終わり	-11.3873
降板	-11.3873
ga	-11.3875
出荷	-11.3875
▁be	-11.3875
賃金	-11.3875
送った	-11.3876
をもたらす	-11.3876
軽い	-11.3879
云ひ	-11.3879
さらには	-11.388
輩	-11.3881
タウ	-11.3882
南東部	-11.3882
ray	-11.3883
イカ	-11.3883
を手に入れ	-11.3885
慰	-11.3885
力は	-11.3885
自然に	-11.3886
てある	-11.3888
周辺に	-11.389
鉱物	-11.389
プレミアム	-11.389
クラーク	-11.3891
んな	-11.3891
いつでも	-11.3892
不幸	-11.3893
エミ	-11.3894
藍	-11.3894
のひとつである	-11.3895
各々	-11.3896
之を	-11.3896
フェルト	-11.3897
設定されている	-11.3897
は無く	-11.3902
ラグ	-11.3903
東南アジア	-11.3904
平安	-11.3905
年夏	-11.3906
補佐	-11.3907
つもりで	-11.3908
▁京都	-11.3908
ヶ谷	-11.3912
を演じ	-11.3913
前には	-11.3913
塗り	-11.3913
先住民	-11.3913
マウス	-11.3914
ライオン	-11.3914
会う	-11.3917
▁兄	-11.3918
思って	-11.392
伝え	-11.3921
いまだ	-11.3923
My	-11.3924
準決勝で	-11.3925
並行	-11.3928
に多く	-11.3929
Mar	-11.393
西ドイツ	-11.393
を読み	-11.3931
電磁	-11.3933
起用され	-11.3935
ロッテ	-11.3936
おれは	-11.3936
125	-11.3937
こま	-11.3939
王妃	-11.394
開戦	-11.394
帽	-11.3941
是非	-11.3942
発信	-11.3942
体が	-11.3943
も行っている	-11.3943
鄭	-11.3943
契約を結んだ	-11.3943
四人	-11.3944
を備え	-11.3945
使える	-11.3945
レスリング	-11.3946
洞窟	-11.3946
ナリ	-11.3947
を意味し	-11.3948
それとも	-11.3949
志願	-11.3949
文学者	-11.395
典型的な	-11.395
パイプ	-11.3952
sch	-11.3952
AND	-11.3954
を失う	-11.3955
IM	-11.3956
所を	-11.3956
じゅ	-11.3956
代わり	-11.3956
任意	-11.3957
ピット	-11.3957
ish	-11.3958
スターリン	-11.3958
慈	-11.396
セッション	-11.396
ーブ	-11.3961
にかかる	-11.3963
人間は	-11.3965
経由で	-11.3968
堪	-11.3968
そうして	-11.3969
奇妙な	-11.3972
摂取	-11.3972
ストレート	-11.3972
赤色	-11.3972
腕を	-11.3973
として知られている	-11.3973
取り付け	-11.3973
警察官	-11.3975
した結果	-11.3975
川沿い	-11.3977
蜂起	-11.3978
mer	-11.3979
排水	-11.398
▁ひろ	-11.3981
1884	-11.3981
筋肉	-11.3982
▁初代	-11.3983
背後	-11.3984
str	-11.3984
知名度	-11.3985
邪魔	-11.3985
▁Pro	-11.3986
関係で	-11.3988
それ以降	-11.3989
裁判官	-11.3989
納め	-11.399
みたいな	-11.3993
マニア	-11.3995
療養	-11.3995
墳	-11.3996
てくれる	-11.3997
回った	-11.3997
を入れて	-11.3998
来ました	-11.3998
問題に	-11.3999
ようになって	-11.3999
同級生	-11.4002
まっていた	-11.4003
WBA	-11.4003
意気	-11.4005
最中	-11.401
作曲した	-11.401
機材	-11.4011
通った	-11.4011
ki	-11.4011
定着	-11.4013
長谷川	-11.4016
來る	-11.4017
おらず	-11.4017
無事	-11.402
同校	-11.4021
白く	-11.4021
ことについて	-11.4023
に立って	-11.4023
外務省	-11.4024
およびその	-11.4024
を介して	-11.4025
レジ	-11.4026
ピュ	-11.4027
内外	-11.4027
スケール	-11.4027
示唆	-11.4028
隊が	-11.4029
一応	-11.4029
Tr	-11.4029
ホッ	-11.4031
支給	-11.4032
になってしまった	-11.4033
敦	-11.4033
訪れ	-11.4035
幼児	-11.4035
で活躍	-11.4036
マルコ	-11.4037
レフ	-11.4038
マーティン	-11.4038
家系	-11.4039
その間に	-11.404
再婚	-11.4041
実際は	-11.4042
写本	-11.4043
車庫	-11.4043
ical	-11.4044
▁JR	-11.4045
諦め	-11.4045
中佐	-11.4046
叶	-11.4048
▁夏	-11.4049
を目的に	-11.405
最高位	-11.405
みられる	-11.4052
真面目	-11.4052
菊池	-11.4054
生じた	-11.4056
大丈夫	-11.4056
ネコ	-11.4056
やろう	-11.4057
進んだ	-11.4058
ない限り	-11.4058
カワ	-11.4058
と見なされ	-11.4058
終わる	-11.4058
アンテナ	-11.4059
にしか	-11.406
名乗り	-11.4062
ヒン	-11.4062
食用	-11.4062
婆さん	-11.4063
南端	-11.4065
小学	-11.4066
住み	-11.4069
勧告	-11.4069
が決定した	-11.4069
du	-11.407
ゴリ	-11.4071
船が	-11.4072
を高め	-11.4072
▁彼が	-11.4073
化して	-11.4073
が出て	-11.4073
右側	-11.4075
年後に	-11.4077
どおり	-11.4078
の地名	-11.4078
一向	-11.4078
見直し	-11.4078
が主流	-11.408
急いで	-11.408
機嫌	-11.4081
越え	-11.4082
大久保	-11.4082
僧侶	-11.4083
彗星	-11.4083
赴任	-11.4084
胎	-11.4086
を目指した	-11.4087
なんぞ	-11.4088
国語	-11.4088
いくらか	-11.4089
アルプス	-11.4089
マンガ	-11.4093
LD	-11.4095
回想	-11.4097
が認められ	-11.4098
農場	-11.4098
津田	-11.4098
ッシング	-11.41
絶望	-11.41
本形式	-11.4101
1873	-11.4101
川口	-11.4102
前提	-11.4102
捕獲	-11.4102
はそのまま	-11.4103
盛んに	-11.4103
みず	-11.4103
を発見し	-11.4106
を買い	-11.4106
この世	-11.4106
つめ	-11.4106
理事会	-11.411
まらない	-11.4113
危険な	-11.4114
最強	-11.4117
ミッド	-11.4118
と称し	-11.4119
災	-11.4119
考察	-11.4123
品川	-11.4123
情熱	-11.4123
幽霊	-11.4123
高知県	-11.4123
してくる	-11.4124
カロ	-11.4126
在学中	-11.4127
最終回	-11.4128
この時点で	-11.4128
中継局	-11.4128
紙幣	-11.413
に置かれた	-11.4132
隈	-11.4132
横に	-11.4132
メニュー	-11.4133
勝手に	-11.4134
樹木	-11.4135
ハリー	-11.4135
集まって	-11.4136
コンパクト	-11.4136
の名前は	-11.4137
神々	-11.4137
答	-11.4137
156	-11.4138
肩を	-11.4139
を超え	-11.4139
を見つけ	-11.4142
▁l	-11.4143
伊東	-11.4144
に陥った	-11.4144
og	-11.4144
久保	-11.4147
が成立した	-11.4149
本当	-11.4151
借金	-11.4153
伝える	-11.4154
▁1936	-11.4156
名所	-11.4156
ジュー	-11.4157
の一つとして	-11.4158
人であった	-11.4159
▁平次は	-11.416
日本の元	-11.4161
枯	-11.4161
諸君	-11.4161
晃	-11.4161
に入れ	-11.4162
呼びかけ	-11.4164
立体	-11.4167
▁この年	-11.4171
わしい	-11.4172
Cr	-11.4172
ep	-11.4172
出場し	-11.4172
are	-11.4172
ung	-11.4173
ドキュメンタリー	-11.4177
ホームページ	-11.4179
働	-11.418
いったい	-11.418
に生まれ	-11.418
武蔵野	-11.418
基本的には	-11.4182
津波	-11.4182
地域では	-11.4183
石垣	-11.4186
ーネ	-11.4186
も可能	-11.4187
飛ぶ	-11.4188
世界的に	-11.4188
は特に	-11.4189
拘	-11.419
学校で	-11.4192
アンリ	-11.4193
るのは	-11.4193
悔	-11.4193
アパート	-11.4194
怪物	-11.4195
奉公	-11.4196
ユニオン	-11.4196
グレート	-11.4197
特典	-11.4198
大津	-11.4199
社会学	-11.4201
べつ	-11.4202
を繰り広げ	-11.4203
公募	-11.4204
巡目	-11.4204
自由民主党	-11.4204
を集めて	-11.4205
成績を残し	-11.4205
城に	-11.4206
1894	-11.4208
カレ	-11.4209
ドメイン	-11.4211
ake	-11.4212
社会党	-11.4212
小学館	-11.4213
工場で	-11.4213
盲	-11.4214
深さ	-11.4215
色を	-11.4216
ata	-11.4218
御所	-11.4219
調和	-11.422
だつて	-11.4221
アース	-11.4222
現れた	-11.4225
かわり	-11.4225
年間に	-11.4225
臼	-11.4226
を食	-11.4228
三丁目	-11.4229
理由として	-11.4229
コンテナ	-11.423
165	-11.423
大山	-11.4231
寒い	-11.4232
両が	-11.4234
さんと	-11.4236
トリア	-11.4237
kW	-11.4238
フスキー	-11.4238
▁他にも	-11.4238
赤字	-11.4239
いろいろな	-11.4239
の一部は	-11.424
うな	-11.424
朝日放送	-11.4241
やってきた	-11.4241
マウント	-11.4242
長に就任	-11.4243
首長	-11.4243
▁郵便番号は	-11.4243
欧	-11.4244
失われた	-11.4244
法学	-11.4244
イニング	-11.4245
絞	-11.4245
国に	-11.4245
友好	-11.4247
背負	-11.4248
chi	-11.4248
日本海軍	-11.4249
一門	-11.4249
名詞	-11.425
現役引退	-11.425
こうとうがっこう	-11.4251
学校法人	-11.4252
東区	-11.4253
テレビ放送	-11.4253
奪取	-11.4254
序盤	-11.4256
イロ	-11.4259
写真を	-11.4259
総額	-11.4259
に転向	-11.426
TC	-11.4261
が得られる	-11.4262
親衛隊	-11.4262
長い間	-11.4263
ホラー	-11.4263
はどう	-11.4264
島田	-11.4265
リッチ	-11.4265
1872	-11.4266
楽しみ	-11.4267
ium	-11.4267
ug	-11.4268
苦痛	-11.4268
彼女に	-11.4268
駄	-11.4269
寿命	-11.4271
▁初	-11.4272
でなければ	-11.4272
ber	-11.4273
エレベーター	-11.4273
をあげて	-11.4273
飲料	-11.4277
左側	-11.4277
外国語	-11.4277
に建設された	-11.428
に巻き込まれ	-11.4281
SHI	-11.4282
を送った	-11.4283
サウ	-11.4284
はならなかった	-11.4284
架空の	-11.4285
サンダー	-11.4285
歌った	-11.4286
を結成し	-11.4287
が困難	-11.4289
渡した	-11.4291
▁血液型は	-11.4291
不定期	-11.4293
孤立	-11.4293
old	-11.4293
本尊	-11.4295
いたり	-11.4296
作る	-11.4297
妨げ	-11.4299
らとともに	-11.43
中華	-11.4302
ヴィッ	-11.4302
年頃から	-11.4303
見られない	-11.4303
することもある	-11.4304
すま	-11.4304
立てた	-11.4305
キット	-11.4305
を知った	-11.4306
考えられる	-11.4307
CF	-11.4309
勃発	-11.4309
島根県	-11.4309
ウルトラマン	-11.4309
グローバル	-11.431
に戻って	-11.431
出身で	-11.4311
尤も	-11.4311
とく	-11.4311
それらは	-11.4312
多分	-11.4313
住居表示	-11.4314
赤軍	-11.4315
NE	-11.4317
先代	-11.4318
思考	-11.4318
行なわれた	-11.4319
から離れ	-11.4319
計画を	-11.4321
に指定された	-11.4321
は各	-11.4321
aw	-11.4321
八重	-11.4321
を通って	-11.4323
物に	-11.4323
存在した	-11.4323
En	-11.4324
をやめ	-11.4325
▁II	-11.4325
追跡	-11.4325
常陸	-11.4325
事がある	-11.4327
億ドル	-11.4327
地理	-11.4327
ff	-11.4328
Mi	-11.4328
を超えた	-11.4328
擁護	-11.4331
連合会	-11.4332
ゃ	-11.4332
フェイス	-11.4335
という説	-11.4336
役目	-11.4336
評論	-11.4337
ハウゼン	-11.4338
姫路	-11.4338
6000	-11.4338
▁on	-11.4339
鳥類	-11.434
後から	-11.4341
かして	-11.4341
の方は	-11.4341
服装	-11.4341
の方から	-11.4342
乗車券	-11.4342
作品として	-11.4342
ように見える	-11.4343
ire	-11.4345
PL	-11.4346
les	-11.4346
階に	-11.4347
人物が	-11.4348
サーキット	-11.435
伯父	-11.4351
艶	-11.4352
ピク	-11.4354
流出	-11.4354
ちやん	-11.4354
限りで	-11.4356
軍艦	-11.4356
血管	-11.4358
日立	-11.4358
肢	-11.436
忍び	-11.4361
組んだ	-11.4361
ダンサー	-11.4362
分から	-11.4362
Li	-11.4362
車輪	-11.4364
天気	-11.4364
本来は	-11.4366
スターズ	-11.4366
喋	-11.4367
へも	-11.4368
つら	-11.4372
邑	-11.4374
訪れる	-11.4376
文化的	-11.4378
専用の	-11.438
嬉し	-11.438
西暦	-11.438
取れ	-11.4383
委	-11.4384
差異	-11.4385
松田	-11.4385
▁映画	-11.4386
乱れ	-11.4387
アーズ	-11.4388
〔	-11.4388
ていました	-11.4388
国際連合	-11.4389
歪	-11.4389
バルト	-11.4389
次郎は	-11.4391
ッチャー	-11.4393
認証	-11.4393
三好	-11.4394
掃	-11.4394
母体	-11.4398
総選挙	-11.44
学院大学	-11.44
曽	-11.4402
鉛	-11.4403
Wi	-11.4403
北条氏	-11.4403
交響楽団	-11.4403
ウェン	-11.4404
衡	-11.4405
もよく	-11.4407
番号は	-11.4407
理念	-11.4408
鎌	-11.4409
残存	-11.441
As	-11.441
湊	-11.4411
ワース	-11.4412
がみ	-11.4413
映画祭	-11.4414
ピアニスト	-11.4414
王は	-11.4415
集まった	-11.4415
握	-11.4415
ノア	-11.4416
からね	-11.4416
キーボード	-11.4417
身長	-11.4418
あげた	-11.4418
誇り	-11.4421
入居	-11.4421
打席	-11.4421
バルブ	-11.4421
語源	-11.4422
標的	-11.4423
出入口	-11.4423
宇治	-11.4426
コンスタン	-11.4427
混同	-11.4428
表記は	-11.4428
したことから	-11.4428
実証	-11.4429
茅	-11.4429
ウォル	-11.4429
des	-11.443
狩	-11.4431
テック	-11.4431
あけ	-11.4432
マレー	-11.4433
宝石	-11.4435
渡った	-11.4436
シドニー	-11.4437
抽象	-11.444
も見	-11.444
ISO	-11.4441
名の由来	-11.4441
書簡	-11.4441
同情	-11.4443
荒川	-11.4446
有利	-11.4447
own	-11.4447
▁Pa	-11.4447
生きている	-11.4447
惑	-11.4449
東武	-11.445
マジック	-11.4451
者で	-11.4451
の一種である	-11.4452
上空	-11.4452
クション	-11.4452
だろうと	-11.4453
姿で	-11.4453
1600	-11.4454
翻	-11.4454
を待つ	-11.4455
主権	-11.4455
▁私が	-11.4455
主流	-11.4456
返した	-11.4457
予定である	-11.4457
台頭	-11.4458
斯う	-11.4458
泣	-11.4458
滴	-11.4458
の権利	-11.4459
指令	-11.4459
▁秋	-11.446
這入	-11.446
確信	-11.4461
がつく	-11.4462
で行う	-11.4462
破綻	-11.4462
1893	-11.4466
することが可能	-11.4467
頻	-11.4468
看護	-11.4468
牙	-11.4469
本作品	-11.447
がよい	-11.4471
審査員	-11.4472
麺	-11.4477
依然として	-11.4477
グッド	-11.4478
Qu	-11.4478
筆頭	-11.4482
FI	-11.4482
を形成し	-11.4483
幅広く	-11.4483
命名された	-11.4485
ここへ	-11.4486
場所は	-11.4486
訪れた	-11.4487
を築いた	-11.4488
小島	-11.4489
深刻な	-11.4489
用水	-11.4489
位置に	-11.449
が好き	-11.4491
ザクセン	-11.4492
に向けた	-11.4493
中尉	-11.4493
表示される	-11.4495
が決まった	-11.4496
抱え	-11.4496
_3	-11.4498
匠	-11.4499
サウンドトラック	-11.45
が主	-11.45
▁1933	-11.4501
ial	-11.4501
扶	-11.4502
高木	-11.4502
漆	-11.4503
貼	-11.4504
をうけ	-11.4505
▁母	-11.4506
▁趣味は	-11.4506
どこへ	-11.4506
朝鮮半島	-11.4508
旗艦	-11.4509
ケア	-11.4509
俣	-11.451
見ても	-11.4511
蒸	-11.4511
に大きく	-11.4514
シルバー	-11.4514
自覚	-11.4515
役職	-11.4516
じつ	-11.4516
をよく	-11.4517
させようと	-11.4517
或いは	-11.4518
此処	-11.4519
昔から	-11.452
濡れ	-11.452
支線	-11.4521
仇	-11.4521
過ごす	-11.4525
we	-11.4526
突如	-11.4527
日産	-11.4529
部位	-11.4529
運ばれ	-11.4529
リティ	-11.4529
スキル	-11.4529
という設定	-11.453
渓谷	-11.4531
落選	-11.4532
窓から	-11.4532
8000	-11.4532
握り	-11.4533
光学	-11.4534
MVP	-11.4534
薩摩	-11.4537
保全	-11.4537
寄せ	-11.4538
一貫	-11.4538
女性が	-11.4539
する際	-11.454
▁これに対して	-11.4541
プリン	-11.4541
犠牲者	-11.4541
そんな事	-11.4542
こんなに	-11.4543
って来て	-11.4543
を受け入れ	-11.4543
グマ	-11.4544
建てられた	-11.4545
ウマ	-11.4545
むる	-11.4546
面倒	-11.4547
実戦	-11.4547
を深め	-11.4547
ラーメン	-11.4548
すすめ	-11.4548
は極めて	-11.4549
欠場	-11.455
露出	-11.4551
ブドウ	-11.4551
入れて	-11.4551
バク	-11.4552
で死去	-11.4552
究	-11.4553
ないという	-11.4554
峯	-11.4554
プラザ	-11.4555
シニア	-11.4555
ストア	-11.4556
に押し	-11.4557
に持ち	-11.4557
佐世保	-11.4558
委員会は	-11.4559
符号	-11.4559
を認める	-11.456
不在	-11.456
小田	-11.456
クリスチャン	-11.4561
いそ	-11.4561
バイト	-11.4561
みたい	-11.4562
路を	-11.4563
本当の	-11.4566
フォート	-11.4567
▁その一方で	-11.4568
吾々	-11.4568
天地	-11.4572
チェス	-11.4573
精神的	-11.4573
継ぐ	-11.4574
ほんとに	-11.4576
貨車	-11.4576
国際的な	-11.4577
に立った	-11.4579
々しく	-11.458
外から	-11.4581
チェロ	-11.4582
としており	-11.4582
リット	-11.4583
ロボ	-11.4584
と思っていた	-11.4585
▁You	-11.4588
ロット	-11.4589
日本一	-11.459
挿入	-11.4591
語った	-11.4591
ドラえもん	-11.4592
ja	-11.4593
は自ら	-11.4594
アリー	-11.4595
頂上	-11.4595
ヘー	-11.4596
▁母は	-11.4596
わん	-11.4597
ハンター	-11.4597
支え	-11.4598
煩	-11.4599
作物	-11.46
眠り	-11.46
▁al	-11.4601
フェー	-11.4601
田川	-11.4604
が低い	-11.4605
ワード	-11.4605
喉	-11.4606
菩薩	-11.4607
バナ	-11.4607
神学	-11.4607
収録されている	-11.4607
っていく	-11.4608
重点	-11.4609
げに	-11.4609
間接	-11.461
もしない	-11.461
エンタテインメント	-11.461
マネー	-11.4611
寛政	-11.4612
軍用	-11.4613
歩道	-11.4613
開始された	-11.4616
カレー	-11.4616
宿泊	-11.4616
併設	-11.4617
似た	-11.4617
通商	-11.4618
と考えていた	-11.4618
台詞	-11.4619
方へ	-11.462
呼ばれる	-11.462
OP	-11.4621
塀	-11.4621
年代前半	-11.4624
記者会見	-11.4625
番頭	-11.4627
特有の	-11.4627
群れ	-11.4627
係数	-11.4628
155	-11.4629
をかける	-11.4629
リーナ	-11.4629
島は	-11.463
4000	-11.4632
高地	-11.4632
出している	-11.4633
明石	-11.4635
言葉は	-11.4636
ビート	-11.4636
と同様の	-11.4637
電灯	-11.4637
馬力	-11.4639
人物である	-11.4639
広島市	-11.4639
チェル	-11.464
ネク	-11.464
といふもの	-11.464
ier	-11.4641
に復帰した	-11.4641
太子	-11.4641
ガールズ	-11.4643
の世帯数と人口は以下の通りである	-11.4644
試合を	-11.4644
とび	-11.4645
工程	-11.4645
からず	-11.4646
けり	-11.4648
ポンプ	-11.4649
習得	-11.465
三度	-11.4651
ニッ	-11.4651
貧困	-11.4653
ざわ	-11.4653
▁次に	-11.4653
初勝利	-11.4653
1892	-11.4654
まことに	-11.4655
に接する	-11.4655
と説明	-11.4655
ズル	-11.4656
を止め	-11.4656
微分	-11.4656
蒲	-11.4659
こともあって	-11.4659
1885	-11.466
ハマ	-11.4662
後者は	-11.4662
再興	-11.4663
を食べる	-11.4664
八郎	-11.4665
発行された	-11.4667
均	-11.4667
をあげ	-11.4667
割れ	-11.4668
メンバーは	-11.4668
新興	-11.467
宮崎県	-11.467
cy	-11.467
と称される	-11.467
フィギュアスケート	-11.467
ませう	-11.467
丹波	-11.467
マック	-11.4671
着工	-11.4671
年間で	-11.4672
上場	-11.4673
で唯一	-11.4673
by	-11.4674
チームメイト	-11.4675
に生息する	-11.4676
そうか	-11.4679
ウェア	-11.4683
ビング	-11.4684
簡単な	-11.4685
1886	-11.4685
飲む	-11.4687
響き	-11.4687
Japan	-11.4689
使用できる	-11.4689
ぬけ	-11.4689
探索	-11.4693
ろうとする	-11.4695
厳密に	-11.4696
入り口	-11.4697
台北	-11.4698
自由党	-11.47
アイデア	-11.47
1888	-11.47
狩猟	-11.47
目は	-11.47
を余儀なくされた	-11.4703
招聘	-11.4704
混ぜ	-11.4706
考えられ	-11.4706
鳥取	-11.4706
氏と	-11.4706
メチル	-11.4707
区にある	-11.4708
下院	-11.4708
拳銃	-11.471
測量	-11.471
廻り	-11.4711
わき	-11.4712
神様	-11.4712
グロー	-11.4713
会見	-11.4714
ブライ	-11.4715
セックス	-11.4715
▁これに対し	-11.4717
来ると	-11.4717
サント	-11.4717
リメイク	-11.4718
水面	-11.4719
1887	-11.4719
共産主義	-11.4721
あらわれ	-11.4722
鞭	-11.4722
頑	-11.4722
円形	-11.4722
穀物	-11.4722
柴田	-11.4722
つて居る	-11.4722
鬱	-11.4723
全然	-11.4725
チャイ	-11.4725
若し	-11.4725
ドック	-11.4726
科学技術	-11.4726
頻度	-11.4726
大内	-11.4726
靖	-11.4727
軽減	-11.4727
播磨	-11.4727
親切	-11.4727
拒絶	-11.4727
幾何学	-11.473
凍	-11.4732
発見した	-11.4732
メンバーが	-11.4733
レアル	-11.4734
虹	-11.4734
を加えて	-11.4736
遮	-11.4737
硫黄	-11.4738
全体が	-11.474
成立した	-11.474
を置き	-11.4741
慣	-11.4742
三条	-11.4742
自国	-11.4743
堆積	-11.4746
CL	-11.4746
現在まで	-11.4747
叱	-11.4747
は同年	-11.4749
全集	-11.4749
進軍	-11.475
素子	-11.475
ポロ	-11.4751
年前の	-11.4751
その中に	-11.4753
中学校に通う場合	-11.4754
ath	-11.4756
ox	-11.4756
そっと	-11.4757
TH	-11.4758
愛情	-11.4759
に耐え	-11.476
運転台	-11.476
完成した	-11.4761
之丞	-11.4765
重視	-11.4766
支社	-11.4766
叔母	-11.4767
入植	-11.4769
裏に	-11.477
あいつ	-11.4772
Be	-11.4773
週末	-11.4774
博士は	-11.4775
棋士	-11.4777
整数	-11.4777
斬り	-11.4778
罵	-11.4779
抄	-11.478
吉川	-11.478
倒産	-11.4782
自動的に	-11.4783
水泳	-11.4784
興奮	-11.4784
兵隊	-11.4784
▁国際	-11.4786
はいけない	-11.4786
首都圏	-11.4786
▁そのほか	-11.4786
松井	-11.4788
センチメートル	-11.4788
首席	-11.4789
南北に	-11.479
砲弾	-11.479
撃退	-11.479
助言	-11.479
町域	-11.4791
されることもある	-11.4792
人であり	-11.4792
コイ	-11.4794
牌	-11.4795
乗組員	-11.4795
レンタル	-11.4795
直轄	-11.4796
ドルフ	-11.4796
mp	-11.4796
ベースボール	-11.4797
儒	-11.4798
のですが	-11.4798
さすがに	-11.4799
聯	-11.4799
攻勢	-11.4799
正常	-11.4799
しておらず	-11.4801
くさ	-11.4802
は中華人民共和国	-11.4803
たいへん	-11.4803
ピオ	-11.4804
君に	-11.4804
植え	-11.4805
企	-11.4807
1869	-11.4808
についた	-11.4809
前者	-11.4809
▁サン	-11.481
高等学校卒業	-11.481
韻	-11.481
ロックバンド	-11.4811
うこと	-11.4811
洪	-11.4815
ler	-11.4815
喪失	-11.4816
掴	-11.4817
▁Ex	-11.4817
は旧	-11.4817
FE	-11.4818
わた	-11.4819
▁1934	-11.4819
殺され	-11.482
隣接	-11.482
佐賀県	-11.482
片手	-11.4821
購入した	-11.4821
阿波	-11.4821
不利	-11.4822
フランツ	-11.4824
なんでも	-11.4825
浸透	-11.4826
行方不明	-11.4826
感動	-11.4829
兄さん	-11.4831
▁n	-11.4831
それより	-11.4831
ネーム	-11.4831
農地	-11.4832
が残る	-11.4832
因子	-11.4832
活躍する	-11.4832
リアス	-11.4834
髪を	-11.4835
祈り	-11.4835
出身のサッカー選手	-11.4837
リーガ	-11.4838
くなつた	-11.4842
貯	-11.4843
史上初の	-11.4843
司祭	-11.4843
月曜	-11.4843
放送時間	-11.4843
種別	-11.4844
ウィー	-11.4845
OK	-11.4846
エウ	-11.4847
わけで	-11.4847
ポルノ	-11.4848
廟	-11.4848
排出	-11.4852
ルズ	-11.4853
京成	-11.4853
ディスプレイ	-11.4853
を制作	-11.4854
代表取締役	-11.4854
地は	-11.4854
と見られる	-11.4856
スティック	-11.4856
記録は	-11.4859
現われ	-11.4859
仮想	-11.486
そり	-11.4861
誘い	-11.4862
死を	-11.4862
ムハンマド	-11.4863
冗談	-11.4864
明確な	-11.4864
浮か	-11.4864
産物	-11.4864
変え	-11.4865
橋梁	-11.4865
していたこと	-11.4866
BR	-11.487
を受けていた	-11.487
ビリー	-11.487
に該当する	-11.4872
幼い	-11.4874
商業施設	-11.4875
ホンダ	-11.4875
狩り	-11.4876
あゝ	-11.4877
められた	-11.4877
横綱	-11.4879
を奪い	-11.4879
▁八	-11.488
撃破	-11.4881
元帥	-11.4882
馬を	-11.4882
が行われていた	-11.4883
前日	-11.4884
ラト	-11.4886
住吉	-11.4887
簿	-11.4889
Dr	-11.489
われている	-11.489
摺	-11.489
題名	-11.489
後日	-11.4891
昔の	-11.4891
るんだ	-11.4892
豊富な	-11.4893
▁続く	-11.4893
宵	-11.4898
はるかに	-11.4899
投球	-11.4899
免疫	-11.49
土器	-11.4901
要件	-11.4902
リース	-11.4903
年次	-11.4904
メディ	-11.4905
出産	-11.4905
スリ	-11.4905
収穫	-11.4906
づくり	-11.4906
ew	-11.4906
改築	-11.4906
始末	-11.4908
動脈	-11.4908
そうである	-11.491
夫人は	-11.4911
蜜	-11.4913
厩舎	-11.4914
の際には	-11.4914
に似ている	-11.4916
氏族	-11.4919
ブラッド	-11.4921
随分	-11.4923
を進める	-11.4925
と合併し	-11.4926
ばかりでなく	-11.4929
定住	-11.493
Fe	-11.493
っきり	-11.493
伝記	-11.493
ヨシ	-11.4931
沙汰	-11.4932
ニオン	-11.4932
デバイス	-11.4933
書かれ	-11.4934
ボーイング	-11.4934
おし	-11.4935
Gu	-11.4936
Di	-11.4936
渠	-11.4936
アルゴリズム	-11.4936
言え	-11.4939
日程	-11.4941
1891	-11.4941
警部	-11.4941
天国	-11.4942
寝台	-11.4943
移動する	-11.4943
発揮	-11.4944
かせる	-11.4944
に収め	-11.4945
独自に	-11.4945
浪人	-11.4947
リスナー	-11.4947
ビリ	-11.495
思ふ	-11.4951
どのように	-11.4951
巳	-11.4952
が悪く	-11.4952
変異	-11.4953
と呼んだ	-11.4956
行なわれ	-11.4956
ガム	-11.4957
決断	-11.4958
は一切	-11.4958
初頭	-11.496
勢力を	-11.4962
皇族	-11.4963
聡	-11.4963
に直接	-11.4964
年代初頭	-11.4964
和平	-11.4965
ョ	-11.4965
▁尚	-11.4965
連動	-11.4966
現れる	-11.4966
中央区	-11.4969
掲載された	-11.497
form	-11.4971
マネジメント	-11.4971
揃え	-11.4971
▁To	-11.4971
全世界	-11.4972
頭が	-11.4973
ドッグ	-11.4974
プレゼント	-11.4975
試合は	-11.4977
を借り	-11.4977
ヨウ	-11.4978
フェイ	-11.4978
窓口	-11.4978
▁→	-11.4979
御座	-11.498
幡	-11.4981
ことば	-11.4981
といっても	-11.4981
構内	-11.4982
採掘	-11.4983
ムン	-11.4984
予定だったが	-11.4984
tal	-11.4985
撤退した	-11.4985
運行されている	-11.4989
利用する	-11.499
アミ	-11.499
\	-11.4991
シエ	-11.4991
に身を	-11.4992
氷河	-11.4993
ブッシュ	-11.4993
▁発売元は	-11.4995
軽量	-11.4995
制作した	-11.4996
純粋	-11.4997
やその	-11.4997
を中心として	-11.4998
に復帰	-11.4999
クリストフ	-11.4999
アルト	-11.5
タイムズ	-11.5001
が進み	-11.5002
などにも	-11.5002
胸を	-11.5002
花が	-11.5003
1878	-11.5004
の人口は	-11.5004
加熱	-11.5005
向こう	-11.5005
詮	-11.5006
さも	-11.5006
州刺史	-11.5007
書房	-11.5007
を問わず	-11.5008
ドレス	-11.5009
用品	-11.5009
着け	-11.501
遍	-11.501
田園	-11.501
リコ	-11.5011
言われ	-11.5011
静かな	-11.5012
東京帝国大学	-11.5012
も含む	-11.5015
魔女	-11.5015
高麗	-11.5015
川上	-11.5016
占め	-11.5016
滞	-11.5016
集まる	-11.5017
儘	-11.5017
定期的に	-11.5017
に当たって	-11.5018
貧乏	-11.5018
細かい	-11.5018
に留学	-11.5018
東京府	-11.5022
を知り	-11.5023
が可能な	-11.5023
ハナ	-11.5024
メトロ	-11.5024
敢	-11.5024
牧野	-11.5025
見ることができる	-11.5025
ib	-11.5025
致し	-11.5025
弾圧	-11.5027
債権	-11.503
台地	-11.5031
ザール	-11.5032
アント	-11.5032
ことです	-11.5033
yl	-11.5034
んだろう	-11.5034
年の国勢調査	-11.5036
避	-11.5036
えず	-11.5037
分らない	-11.5037
ソース	-11.5038
特徴的な	-11.5039
ホット	-11.504
をしながら	-11.5041
YA	-11.5043
▁その際	-11.5043
ニヤ	-11.5045
システムは	-11.5045
閉店	-11.5045
ラーズ	-11.5046
付与	-11.5046
駿河	-11.5046
と云	-11.5047
Ad	-11.5048
アイス	-11.5048
入れ替え	-11.5048
認	-11.505
あれば	-11.505
音楽家	-11.505
經	-11.5052
目立つ	-11.5055
を走る	-11.5056
明瞭	-11.5056
一時は	-11.5057
と思われ	-11.5057
作られる	-11.5057
サマー	-11.5058
人の基礎自治体	-11.5058
▁Mar	-11.5059
沈没	-11.5059
ヴィス	-11.5059
原田	-11.506
村は	-11.5062
八王子	-11.5063
知られていた	-11.5064
刈	-11.5065
くじ	-11.5066
年秋	-11.5066
TOKYO	-11.5068
メロディ	-11.5069
自称	-11.5071
マリン	-11.5072
武帝	-11.5072
近づいて	-11.5072
イタ	-11.5073
と思つて	-11.5074
アト	-11.5074
Si	-11.5074
花火	-11.5077
文法	-11.5077
岐	-11.5077
設計された	-11.5078
不動	-11.5079
名目	-11.508
YouTube	-11.508
も含めて	-11.5081
多大な	-11.5082
に編入された	-11.5084
契約を	-11.5086
が現れる	-11.5086
を実施した	-11.5087
朝日新聞	-11.5088
乗務員	-11.5088
を開き	-11.5089
処置	-11.5089
下から	-11.509
同市	-11.5091
を組んで	-11.5091
アルメニア	-11.5092
アーチ	-11.5093
ONE	-11.5093
▁あなた	-11.5093
アナウンス	-11.5096
全体で	-11.5096
企業である	-11.5096
▁Th	-11.5097
ric	-11.5097
陰謀	-11.5097
三年	-11.5097
テイラー	-11.5098
▁基本的に	-11.5099
オールスター	-11.5099
エリック	-11.5101
生物学	-11.5101
ナール	-11.5101
ten	-11.5103
GB	-11.5104
※	-11.5104
自分も	-11.5105
央	-11.5106
數	-11.5107
人々に	-11.5107
滑走路	-11.5108
チャンピオンズリーグ	-11.5108
伝道	-11.5108
日午前	-11.5112
存在している	-11.5112
楠	-11.5114
投下	-11.5115
外野手	-11.5115
シュタット	-11.5116
するところ	-11.5116
鳥取県	-11.5116
其処	-11.5116
を決定する	-11.5117
面では	-11.5118
ーヴ	-11.5118
で約	-11.5122
わす	-11.5123
に対応した	-11.5123
殺害された	-11.5125
朋	-11.5127
いると	-11.5128
てつ	-11.5129
持続	-11.513
聖堂	-11.5132
生育	-11.5132
活動は	-11.5132
を送る	-11.5135
が成立する	-11.5135
でありました	-11.5135
退け	-11.5135
を参照のこと	-11.5138
守り	-11.5139
気動車	-11.514
と称して	-11.5141
リヒ	-11.5141
最高裁判所	-11.5142
停車する	-11.5143
ens	-11.5143
を必要とする	-11.5144
撤去	-11.5144
宗教的	-11.5144
を利用し	-11.5144
北上	-11.5146
彫	-11.5146
ライス	-11.5149
同じような	-11.515
公衆	-11.515
実態	-11.515
ところから	-11.5152
立っていた	-11.5153
を満たす	-11.5154
無駄	-11.5154
bi	-11.5155
カート	-11.5158
箇	-11.5158
バース	-11.5159
中毒	-11.5159
として参加	-11.516
標識	-11.516
する方法	-11.5166
兼ね	-11.5167
が発見された	-11.5167
ヵ月	-11.5168
前へ	-11.5169
弁護	-11.5172
ナレーション	-11.5172
管制	-11.5173
は完全に	-11.5173
返して	-11.5174
しら	-11.5174
こな	-11.5175
時代劇	-11.5176
マット	-11.5176
豊富	-11.5177
tri	-11.5178
地域は	-11.5178
強豪	-11.5179
寄贈	-11.5179
彼自身	-11.5179
慮	-11.518
戻り	-11.5181
出家	-11.5182
ART	-11.5184
交響曲	-11.5184
使用している	-11.5185
はあ	-11.5187
生前	-11.5187
で構成されている	-11.5187
シラ	-11.5187
つながり	-11.519
くだ	-11.5191
に変更した	-11.5191
ara	-11.5193
予言	-11.5193
補強	-11.5194
ハインリヒ	-11.5194
ているため	-11.5195
仮面	-11.5195
番人気	-11.5195
に選出され	-11.5197
VE	-11.5197
小規模な	-11.52
威力	-11.52
番手	-11.5203
例は	-11.5203
そら	-11.5204
を越える	-11.5204
]]	-11.5204
トップチーム	-11.5206
FW	-11.5206
放射線	-11.5206
タービン	-11.5207
死骸	-11.5207
▁毎年	-11.5208
政界	-11.5209
ホイ	-11.5209
ツク	-11.521
もありません	-11.521
▁1931	-11.5213
市で	-11.5213
浅野	-11.5214
相互作用	-11.5215
事前に	-11.5215
ていたこと	-11.5216
▁これによって	-11.5217
ea	-11.5217
十日	-11.5218
娘が	-11.522
東アジア	-11.522
自由主義	-11.5223
隣の	-11.5223
を巡って	-11.5223
描かれる	-11.5224
エビ	-11.5224
▁1935	-11.5226
前後に	-11.5227
▁1932	-11.5227
ソール	-11.5227
全国大会	-11.5228
安芸	-11.5228
を避け	-11.523
を移し	-11.5232
代官	-11.5232
プレーヤー	-11.5235
厚い	-11.5237
知っていた	-11.5238
治安	-11.5239
であったこと	-11.5239
1860	-11.524
こいつ	-11.524
最初から	-11.5241
補償	-11.5242
先ず	-11.5243
樽	-11.5245
タナ	-11.5245
恐竜	-11.5247
HI	-11.5247
UR	-11.5248
どうだ	-11.525
開校	-11.525
を防ぐため	-11.525
徳川家康	-11.5251
VS	-11.5254
異動	-11.5254
に初めて	-11.5255
合わせる	-11.5256
今では	-11.5256
陣地	-11.5257
が生じた	-11.5257
鉄道が	-11.5258
従五位下	-11.5258
必須	-11.5258
を伝える	-11.5259
處	-11.5263
殺人事件	-11.5264
を高める	-11.5264
リッジ	-11.5265
さらなる	-11.5265
立憲	-11.5266
参議院	-11.5266
結婚式	-11.5268
に用いる	-11.5269
優秀な	-11.5271
兼任	-11.5272
ドス	-11.5272
伝わる	-11.5273
睡	-11.5273
ドコモ	-11.5274
カルロス	-11.5275
告知	-11.5275
三田	-11.5276
クン	-11.5277
コリ	-11.5277
何度か	-11.5278
利点	-11.5279
パンチ	-11.528
地方裁判所	-11.528
中日	-11.528
きれ	-11.5281
錠	-11.5281
Google	-11.5282
いったん	-11.5282
ガメ	-11.5282
系図	-11.5282
そんなことを	-11.5282
ダラ	-11.5283
へた	-11.5285
を発し	-11.5285
月号から	-11.5287
オートバイ	-11.5287
に搭載され	-11.5289
蓄積	-11.5289
[[	-11.5289
苑	-11.529
起動	-11.529
すか	-11.5291
AKB	-11.5291
溢れ	-11.5292
になってしまう	-11.5293
調節	-11.5293
副会長	-11.5293
迷惑	-11.5294
ッシャー	-11.5295
されることとなった	-11.5296
量子	-11.5301
て行った	-11.5301
セキュリティ	-11.5302
月中旬	-11.5302
モジュール	-11.5303
に従う	-11.5303
金剛	-11.5303
ライオンズ	-11.5304
クラン	-11.5304
叩き	-11.5305
lan	-11.5305
ティル	-11.5306
宇宙船	-11.5306
コロン	-11.5306
一貫して	-11.5307
絵本	-11.5308
九郎	-11.5308
住人	-11.5309
灘	-11.531
をめぐる	-11.531
巡査	-11.531
部落	-11.5311
破産	-11.5311
を認めた	-11.5311
ヴィクトリア	-11.5314
伏せ	-11.5314
を防ぐ	-11.5318
を目指し	-11.5318
台所	-11.532
という形で	-11.532
説がある	-11.5321
チケット	-11.5321
対岸	-11.5322
陥	-11.5322
用地	-11.5322
ワール	-11.5323
決定した	-11.5326
を残している	-11.5327
と同等	-11.5328
破壊された	-11.5328
▁1928	-11.5328
妖	-11.5328
どこに	-11.533
JST	-11.533
古くは	-11.5333
英文	-11.5334
たずね	-11.5334
秩父	-11.5334
入門	-11.5338
アプローチ	-11.5338
が続く	-11.5339
言葉が	-11.534
ブレイク	-11.534
ムーン	-11.534
景色	-11.5341
シーズンには	-11.5341
娘は	-11.5342
見ていた	-11.5342
遺伝	-11.5342
決定戦	-11.5348
の一つで	-11.5348
魯	-11.535
内部に	-11.535
賭け	-11.5351
が流れ	-11.5351
に恵まれ	-11.5353
地として	-11.5354
事務局	-11.5355
に収録	-11.5355
あげる	-11.5355
▁+	-11.5355
衰え	-11.5356
を避けるため	-11.5356
大王	-11.5356
解任	-11.5358
夢中	-11.5359
持っていた	-11.5359
Live	-11.536
ペレ	-11.536
化粧	-11.5361
min	-11.5361
特権	-11.5362
μ	-11.5362
たつ	-11.5363
BOX	-11.5363
oo	-11.5364
が開催された	-11.5365
を有している	-11.5367
傘下の	-11.5367
本作では	-11.5368
正統	-11.5369
歯科	-11.5369
ピッチ	-11.537
を皮切りに	-11.537
マケドニア	-11.537
手続	-11.537
を取得した	-11.5371
川と	-11.5371
ッテ	-11.5372
▁そこへ	-11.5373
障	-11.5375
Na	-11.5378
和泉	-11.5378
嬢	-11.5381
ってくれ	-11.5382
おさ	-11.5383
写像	-11.5386
城下	-11.5386
止ま	-11.5387
でプレー	-11.5388
一般的には	-11.539
ファイト	-11.5392
の無い	-11.5392
発症	-11.5393
アジ	-11.5393
ずみ	-11.5393
誇	-11.5394
レイン	-11.5396
シベリア	-11.5398
マルク	-11.5399
鳴り	-11.5401
言葉で	-11.5401
表す	-11.5401
封じ	-11.5402
オーク	-11.5403
Lo	-11.5403
部隊が	-11.5403
着く	-11.5404
サード	-11.5404
ことができず	-11.5405
ムラ	-11.5406
びっくり	-11.5407
略奪	-11.5411
ny	-11.5412
ウォール	-11.5413
○	-11.5413
ローラ	-11.5414
計画が	-11.5415
ジェフ	-11.5416
が含まれている	-11.5416
棄	-11.5416
アーム	-11.5417
本人は	-11.5418
船橋	-11.5418
直ぐに	-11.5419
▁高校	-11.5419
能力を	-11.5419
他国	-11.542
を決定した	-11.542
問われ	-11.5421
いいえ	-11.5423
さび	-11.5428
都会	-11.5428
呼ぶ	-11.5428
ギリ	-11.5429
左右に	-11.543
伸子	-11.5432
火事	-11.5432
パーティ	-11.5433
初当選	-11.5434
派遣された	-11.5434
を加える	-11.5434
▁英語	-11.5435
近頃	-11.5437
MD	-11.5437
ハンドル	-11.5438
石田	-11.5439
が設立され	-11.544
餘	-11.5441
Pa	-11.5441
バージニア州	-11.5442
がなされ	-11.5442
とのこと	-11.5444
とは思	-11.5445
上院議員	-11.5447
婚約	-11.5448
心は	-11.5448
▁1927	-11.5449
となるが	-11.5449
直す	-11.545
種は	-11.545
ますが	-11.545
▁この時期	-11.545
アルバ	-11.5451
旭川	-11.5452
敗で	-11.5452
年度から	-11.5454
開通した	-11.5454
船は	-11.5455
坊主	-11.5455
落ちて	-11.5455
選ばれ	-11.5455
から成る	-11.5456
▁For	-11.5456
大砲	-11.5457
光線	-11.5457
フード	-11.5458
センチ	-11.5458
デッキ	-11.5458
出身の元プロ野球選手	-11.5459
空想	-11.5459
になります	-11.5461
獲得した	-11.5461
▁原作	-11.5462
急遽	-11.5463
聞かせ	-11.5463
まとめて	-11.5466
小児	-11.5467
これだけ	-11.5467
に就いた	-11.5467
を維持する	-11.5468
住んで	-11.5468
安定した	-11.5469
細君	-11.547
逸話	-11.547
閣僚	-11.5471
わけではなく	-11.5471
似ている	-11.5471
福寺	-11.5473
指数	-11.5473
バブル	-11.5474
ヒョ	-11.5474
チーフ	-11.5474
а	-11.5475
歓迎	-11.5475
パンク	-11.5475
救急	-11.5477
病人	-11.5477
ベック	-11.5477
環状	-11.5478
MG	-11.5478
例である	-11.5478
年以来	-11.5478
あお	-11.5479
に任命され	-11.5479
模	-11.548
喜劇	-11.5482
傑	-11.5483
wa	-11.5483
番艦	-11.5484
してくれる	-11.5484
もって	-11.5484
変遷	-11.5485
国土交通省	-11.5487
本郷	-11.5489
フランス人	-11.5491
症候群	-11.5491
報じられた	-11.5494
公的	-11.5494
Jo	-11.5494
アルミ	-11.5494
履	-11.5495
中央に	-11.5495
時頃	-11.5497
▁慶長	-11.5497
汽船	-11.5497
が同じ	-11.5499
陀	-11.5499
ブルック	-11.5499
として知られ	-11.5499
復旧	-11.55
問う	-11.55
刀を	-11.5501
リンカーン	-11.5501
区間は	-11.5501
告発	-11.5501
最終戦	-11.5501
はっきりと	-11.5502
vo	-11.5502
審議会	-11.5502
難民	-11.5502
武力	-11.5502
発見され	-11.5505
水源	-11.5505
に出走	-11.5505
蓄	-11.5506
ストック	-11.5506
描	-11.5506
認められた	-11.5507
▁1924	-11.5507
酒井	-11.5507
形が	-11.5509
を獲得する	-11.5509
プロレスラー	-11.551
抱き	-11.551
流し	-11.551
を与えられた	-11.5511
美子	-11.5511
一等	-11.5511
性と	-11.5512
減少した	-11.5512
暮らす	-11.5512
二人で	-11.5513
対称	-11.5513
御殿	-11.5514
何と	-11.5515
上では	-11.5515
も含め	-11.5515
1882	-11.5515
パシフィック	-11.5516
全車	-11.5518
有数の	-11.5518
津市	-11.5519
を攻め	-11.552
蕭	-11.552
スピン	-11.5521
ソフトバンク	-11.5521
藤井	-11.5521
ズが	-11.5521
支持者	-11.5521
出来なかった	-11.5522
イギリス海軍	-11.5523
務める	-11.5523
何とも	-11.5523
惟	-11.5524
を名乗る	-11.5524
得られた	-11.5525
蒙	-11.5525
いれば	-11.5525
▁続いて	-11.5526
を差し	-11.5526
人質	-11.5527
外交官	-11.5527
で構成され	-11.5527
後輩	-11.5527
適切	-11.5528
ワイルド	-11.5529
こむ	-11.5529
ギャグ	-11.553
後で	-11.553
各地に	-11.553
シミュレーション	-11.5532
くれる	-11.5533
飲んで	-11.5534
に相違ない	-11.5534
コイン	-11.5534
を執筆	-11.5535
破れ	-11.5537
空に	-11.5538
ユリ	-11.5538
と思つた	-11.5538
神秘	-11.554
主教	-11.554
あげて	-11.5541
地盤	-11.5541
OD	-11.5541
改札口	-11.5542
兵を	-11.5542
シェー	-11.5543
シマ	-11.5545
視察	-11.5546
南朝	-11.5546
を閉じ	-11.5547
合体	-11.5548
ノキ	-11.5548
兵衛は	-11.5549
母親は	-11.5549
太平	-11.555
統括	-11.555
完全移籍	-11.5551
演じ	-11.5551
巴	-11.5551
起工	-11.5551
運ぶ	-11.5552
を入れる	-11.5552
行つて	-11.5553
瓜	-11.5553
エコ	-11.5554
動物園	-11.5554
Mac	-11.5554
に選ばれ	-11.5556
受け入れられ	-11.5556
ボランティア	-11.5557
残りの	-11.5557
濃い	-11.5558
を残して	-11.5558
と称した	-11.5558
携わ	-11.5559
川水系	-11.5559
浮き	-11.5561
あらかじめ	-11.5561
蒸気機関車	-11.5561
ヘッ	-11.5562
チェスター	-11.5564
マンチェスター	-11.5564
売買	-11.5565
入隊	-11.5565
開店	-11.5566
勝利した	-11.5566
が設けられている	-11.5568
高かった	-11.5568
知って	-11.557
Su	-11.5571
デラ	-11.5571
鳥居	-11.5573
になっても	-11.5573
侵害	-11.5573
木曜	-11.5573
教団	-11.5574
フロリダ	-11.5574
自作	-11.5575
そのために	-11.5577
を突き	-11.5578
れども	-11.5579
々たる	-11.5579
がなされている	-11.558
家畜	-11.5581
可決	-11.5583
アイヌ	-11.5584
忘れて	-11.5584
に収録されている	-11.5585
内務省	-11.5586
ウィルソン	-11.5586
事前	-11.5588
に至り	-11.5589
紺	-11.559
めえ	-11.5591
与党	-11.5591
煙突	-11.5591
歳の時	-11.5592
グレン	-11.5592
震災	-11.5593
とすると	-11.5593
本作は	-11.5593
撃ち	-11.5594
付けられ	-11.5594
外へ	-11.5595
世紀には	-11.5595
じゅん	-11.5595
ができた	-11.5596
如何	-11.5596
兎	-11.5598
援軍	-11.5598
Gr	-11.56
クサ	-11.5601
▁Pr	-11.5602
遺構	-11.5603
スーツ	-11.5605
に来る	-11.5605
‐	-11.5606
うて	-11.5606
描く	-11.5606
一見	-11.561
東海道	-11.5611
早速	-11.5611
しません	-11.5612
▁No	-11.5615
ルーキー	-11.5618
結果を	-11.5618
毅	-11.5618
を強め	-11.562
アフガニスタン	-11.5623
Linux	-11.5623
化されている	-11.5624
ous	-11.5625
バスク	-11.5625
作動	-11.5626
▁彼女の	-11.5627
絶えず	-11.5629
パロディ	-11.5629
を結び	-11.563
が用意され	-11.563
艦船	-11.563
性は	-11.5631
安全性	-11.5632
容器	-11.5632
の為に	-11.5633
彰	-11.5633
ことが多かった	-11.5634
付けて	-11.5635
選出された	-11.5636
出て来た	-11.5636
交付	-11.5638
兵庫	-11.564
償	-11.5641
側近	-11.5642
PE	-11.5644
牝馬	-11.5644
帰国した	-11.5644
つね	-11.5644
を失って	-11.5646
石原	-11.5647
宙	-11.5647
突っ	-11.5647
川越	-11.5648
始まって	-11.5649
古来	-11.565
で開催	-11.5651
基幹	-11.5651
現金	-11.5652
の一員として	-11.5652
近づく	-11.5652
混雑	-11.5653
きく	-11.5654
中国人	-11.5654
とみなされ	-11.5659
半径	-11.5659
を歴任した	-11.566
知らなかった	-11.566
積分	-11.566
広義	-11.566
醸造	-11.566
十年	-11.5661
岡本	-11.5661
に放送された	-11.5661
として生まれた	-11.5662
りつ	-11.5662
作成した	-11.5663
▁1929	-11.5664
娯楽	-11.5664
抽選	-11.5664
とみられる	-11.5664
シーズンに	-11.5665
に就任する	-11.5665
アポロ	-11.5665
高温	-11.5667
use	-11.5667
に応じ	-11.5668
官房	-11.5668
の伝統	-11.5668
ピース	-11.5669
愛知県名古屋市	-11.5669
有力な	-11.567
淀	-11.567
だめ	-11.567
というのが	-11.5671
ねばならない	-11.5673
社会人	-11.5674
▁1925	-11.5675
らを	-11.5675
時まで	-11.5677
▁当時は	-11.5677
高校卒業後	-11.5677
キエフ	-11.5678
路線は	-11.5678
サロン	-11.5679
を引く	-11.568
パキスタン	-11.5681
に入れて	-11.5681
地面	-11.5681
つつも	-11.5682
NET	-11.5682
なっていた	-11.5684
ツキ	-11.5684
グッズ	-11.5684
柵	-11.5685
悩み	-11.5685
置いた	-11.5688
定められ	-11.5688
と共演	-11.5689
だったという	-11.569
遡	-11.5691
恨	-11.5691
西村	-11.5692
沈黙	-11.5693
▁過去	-11.5693
も務めた	-11.5694
日本政府	-11.5694
無論	-11.5697
といわれ	-11.57
OVA	-11.5701
うす	-11.5702
アグ	-11.5702
につれ	-11.5703
▁ロシア	-11.5703
戻し	-11.5703
たかった	-11.5703
下へ	-11.5703
大谷	-11.5704
反論	-11.5706
行くと	-11.5706
に来て	-11.5707
オリコン	-11.5707
落とし	-11.5708
髄	-11.5709
を選ぶ	-11.571
エージェント	-11.571
小規模	-11.571
人組	-11.5711
新生	-11.5711
高野	-11.5714
に際し	-11.5714
UP	-11.5714
防災	-11.5715
に接し	-11.5715
den	-11.5715
朝鮮人	-11.5716
解散した	-11.5717
テーション	-11.5718
南に	-11.5718
惡	-11.5719
ソリ	-11.5719
頃は	-11.5722
町立	-11.5722
違った	-11.5723
慣習	-11.5723
を巻き	-11.5723
されることがある	-11.5724
まさか	-11.5725
Me	-11.5725
郡山	-11.5726
ヘッセン	-11.5728
安田	-11.5728
とめ	-11.5729
切手	-11.5729
自由な	-11.573
その頃	-11.573
メリット	-11.573
なのです	-11.5732
木曽	-11.5733
アフ	-11.5734
ail	-11.5734
京王	-11.5734
船を	-11.5735
を対象に	-11.5737
客室	-11.5737
輩出	-11.5737
出ている	-11.5738
建造された	-11.5739
それ以外	-11.5739
つつあった	-11.5741
今朝	-11.5742
芦	-11.5742
鋭い	-11.5742
分ける	-11.5743
枠で	-11.5743
見せた	-11.5744
ダート	-11.5744
ダール	-11.5745
クリーム	-11.5745
した時	-11.5746
歳以下	-11.5746
法師	-11.5747
オブジェクト	-11.5747
今作	-11.5747
を読んで	-11.5748
名声	-11.5748
地主	-11.5749
を確保し	-11.5749
ei	-11.575
部門で	-11.5753
理学	-11.5754
占	-11.5755
囲碁	-11.5756
▁第一次世界大戦	-11.5757
に飛び	-11.5757
染め	-11.5758
ラール	-11.5759
あとで	-11.576
収容所	-11.576
を遂げ	-11.5761
入りした	-11.5761
一般的	-11.5761
参加する	-11.5763
情報番組	-11.5763
を導入し	-11.5763
武者	-11.5764
したがって	-11.5766
に適	-11.5766
階層	-11.5771
amp	-11.5772
集英社	-11.5772
目黒	-11.5774
遭遇	-11.5775
が導入され	-11.5776
きながら	-11.5776
庸	-11.5777
ブール	-11.5778
方面から	-11.5779
さして	-11.5781
追われ	-11.5781
の一角	-11.5784
▁通称は	-11.5786
ござ	-11.5787
マジ	-11.5787
ゲームソフト	-11.5787
一般県道	-11.5788
帖	-11.5789
卒業生	-11.579
1864	-11.5791
誰でも	-11.5792
飛行隊	-11.5793
慾	-11.5793
魚類	-11.5794
▁イ	-11.5795
に備え	-11.5795
介護	-11.5796
生産された	-11.5797
に向かい	-11.5799
ナイフ	-11.58
大学校	-11.58
AG	-11.5801
を入れ	-11.5802
を開く	-11.5802
に加わった	-11.5805
割引	-11.5805
ヘビー級	-11.5805
探検	-11.5806
ev	-11.5807
取られた	-11.5807
理由から	-11.5808
讀	-11.581
状況を	-11.5813
現職	-11.5813
通常盤	-11.5816
離れて	-11.5816
が設立された	-11.5817
Mk	-11.5817
此方	-11.5819
▁Se	-11.5819
tu	-11.582
で活躍した	-11.582
通知	-11.5821
詳細な	-11.5821
世論	-11.5821
かせた	-11.5821
による日本の	-11.5822
ジェリー	-11.5822
濱	-11.5823
信じ	-11.5824
辞典	-11.5825
泣く	-11.5825
せし	-11.5826
であったという	-11.5828
何が	-11.5828
と言われた	-11.5829
に転じた	-11.5829
がおり	-11.5829
con	-11.583
NC	-11.583
テクノロジー	-11.5831
種族	-11.5833
その上に	-11.5833
凄	-11.5833
漫	-11.5834
▁第二	-11.5834
式で	-11.5838
横山	-11.5838
ock	-11.584
粟	-11.584
ā	-11.584
ネズミ	-11.584
造船	-11.5841
するには	-11.5844
NFL	-11.5844
サッカークラブ	-11.5844
我々の	-11.5845
▁韓国	-11.5847
纏	-11.5848
迎	-11.5849
ということが	-11.5849
泣いて	-11.585
ヴィッチ	-11.5851
午	-11.5851
cal	-11.5851
窺	-11.5852
田原	-11.5853
奥さん	-11.5853
住友	-11.5854
プト	-11.5855
保障	-11.5855
況	-11.5855
ゴロ	-11.5856
はしばしば	-11.5856
與	-11.5856
ばせ	-11.5857
ッて	-11.5857
高度な	-11.5857
ari	-11.5858
入れる	-11.5858
販売する	-11.5859
今日では	-11.5859
エッセイ	-11.5861
東京市	-11.5862
有馬	-11.5864
本格	-11.5864
オファー	-11.5865
小泉	-11.5866
ホームズ	-11.5866
研究員	-11.5868
シテ	-11.5869
樂	-11.5869
о	-11.5869
ヒロ	-11.5871
顕著	-11.5871
BI	-11.5871
晶	-11.5871
であろうと	-11.5871
が起きた	-11.5872
復活した	-11.5872
勝を挙げ	-11.5872
OB	-11.5873
▁最終的に	-11.5875
数千	-11.5876
だらけ	-11.5878
言っている	-11.5878
rt	-11.5879
▁1918	-11.5879
下ろし	-11.588
を考え	-11.5881
友会	-11.5882
さり	-11.5883
最後は	-11.5883
年の間	-11.5886
本物	-11.5887
フォーム	-11.5888
さうな	-11.5888
雇	-11.5889
かゝ	-11.5889
にせよ	-11.5891
計測	-11.5894
超人	-11.5895
に続き	-11.5895
一夜	-11.5895
▁しかしこの	-11.5895
167	-11.5895
堰	-11.5899
TI	-11.5899
代謝	-11.59
麻呂	-11.59
が廃止され	-11.59
掛けた	-11.5902
アレクサンドル	-11.5903
nk	-11.5903
リン酸	-11.5905
を上げる	-11.5905
ラヴ	-11.5906
ランダム	-11.5906
サハ	-11.5906
▁with	-11.5908
に定着	-11.5908
そく	-11.5909
バレ	-11.5909
が追加され	-11.591
傾向にある	-11.591
やれ	-11.591
ファーム	-11.5911
ここまで	-11.5911
公卿	-11.5911
配属	-11.5911
沿	-11.5912
大敗	-11.5914
仕上げ	-11.5914
だわ	-11.5915
ロッキー	-11.5916
アサ	-11.5916
10%	-11.5918
ふみ	-11.5919
gu	-11.5919
廉	-11.5923
州内	-11.5924
解明	-11.5925
高まり	-11.5926
ck	-11.5926
を掛け	-11.5929
細工	-11.5929
エクスプレス	-11.5929
Un	-11.593
1874	-11.5931
ナビ	-11.5931
ふん	-11.5931
されるなど	-11.5933
ハードウェア	-11.5933
ミズ	-11.5935
遂行	-11.5935
タマ	-11.5936
鉄砲	-11.5937
演じる	-11.5938
北極	-11.5938
ミドル	-11.594
100%	-11.5941
出現する	-11.5942
ッソ	-11.5943
太い	-11.5947
しきりに	-11.5949
内容が	-11.5951
全体を	-11.5952
コーラス	-11.5954
水野	-11.5954
としての活動	-11.5954
修士	-11.5954
蜀	-11.5954
相手を	-11.5955
▁そのような	-11.5956
カシ	-11.5956
してしまい	-11.5957
首脳	-11.5958
名鉄	-11.5958
Twitter	-11.5959
に襲われ	-11.5959
▁主人公	-11.596
ぼり	-11.5961
理性	-11.5963
薬師	-11.5963
▁通称	-11.5964
争う	-11.5964
センス	-11.5964
コラム	-11.5966
からぬ	-11.5966
最下位	-11.5968
信頼性	-11.5969
が放送された	-11.5969
▁ジョン	-11.597
穿	-11.5971
となったため	-11.5972
が発見され	-11.5973
したのである	-11.5973
は必ず	-11.5974
▁そのとき	-11.5975
鑑定	-11.5975
寅	-11.5976
タバコ	-11.5976
孤独	-11.5976
デルタ	-11.5976
全曲	-11.5978
顔は	-11.5978
vers	-11.5979
伊賀	-11.5979
▁1923	-11.598
らざる	-11.5983
はもちろん	-11.5984
決まって	-11.5984
みなみ	-11.5984
ムル	-11.5985
に代わり	-11.5985
片側	-11.5985
造営	-11.5986
葉子	-11.5986
を固め	-11.5987
にのみ	-11.5987
1876	-11.5989
ウルフ	-11.599
▁いま	-11.599
十月	-11.5991
旋回	-11.5992
別荘	-11.5992
1879	-11.5992
わせた	-11.5993
を命じた	-11.5995
コモ	-11.5996
てはならない	-11.5997
ドレ	-11.5997
リフ	-11.5998
大夫	-11.5998
親しまれ	-11.5999
プロ入り	-11.6002
ウッ	-11.6002
ハーバー	-11.6003
加入した	-11.6003
受容体	-11.6003
都心	-11.6003
グラー	-11.6004
セールス	-11.6005
戴	-11.6005
アピール	-11.6006
ッサー	-11.6007
アニメ版	-11.6008
を付け	-11.6008
も多かった	-11.6009
五百	-11.601
出すこと	-11.601
サンデー	-11.601
アップル	-11.6011
会った	-11.6011
月以降	-11.6012
づく	-11.6013
碁	-11.6014
彼方	-11.6014
残した	-11.6015
tes	-11.6015
所管	-11.6016
媒体	-11.6017
全土	-11.6018
を描き	-11.602
一段	-11.602
毎日放送	-11.602
との戦い	-11.602
▁当駅	-11.6021
ヘリ	-11.6022
ナトリウム	-11.6023
藤沢	-11.6023
再選	-11.6024
貧しい	-11.6025
吸い	-11.6026
販売された	-11.6026
倫	-11.6026
体力	-11.6027
取り扱い	-11.6028
被災	-11.6029
動向	-11.6029
まとま	-11.603
さる	-11.6032
嫡男	-11.6035
炊	-11.6036
なると	-11.6037
するようになり	-11.6038
読んで	-11.6039
が加えられ	-11.6039
って行く	-11.6039
1877	-11.604
赤坂	-11.604
▁なぜなら	-11.6041
受ける	-11.6041
▁そこに	-11.6042
を搭載する	-11.6045
を表し	-11.6045
TT	-11.6045
我慢	-11.6045
懲役	-11.6045
この番組	-11.6046
▁k	-11.6047
工科大学	-11.6048
魔術	-11.6048
大幅な	-11.6049
兼務	-11.6049
ost	-11.6051
面会	-11.6051
EA	-11.6051
維新	-11.6052
たとき	-11.6054
実務	-11.6055
▁元々は	-11.6055
Mo	-11.6055
VA	-11.6055
クシ	-11.6057
素晴らしい	-11.6057
ことができない	-11.6058
やって来た	-11.6058
ジョセフ	-11.6058
断層	-11.6058
が登場し	-11.6061
然として	-11.6061
悲しい	-11.6062
が与えられ	-11.6062
デュー	-11.6062
パール	-11.6063
その場	-11.6063
▁加えて	-11.6067
舞踊	-11.6067
を書いて	-11.6068
そうで	-11.6068
狙い	-11.6069
ちがい	-11.607
避け	-11.6071
臭い	-11.6073
製作所	-11.6075
二人が	-11.6076
線型	-11.6076
店で	-11.6076
猶	-11.6077
初めに	-11.6078
トロント	-11.6079
▁本項では	-11.6079
FS	-11.608
危険性	-11.6081
7000	-11.6081
コト	-11.6082
オウ	-11.6082
ジョージア	-11.6082
に進む	-11.6084
日本国	-11.6085
抽出	-11.6085
遥	-11.6086
ure	-11.6087
熊谷	-11.6087
多くの場合	-11.6089
スタートした	-11.609
を望む	-11.609
認められる	-11.6093
を当て	-11.6094
その夜	-11.6094
寄生	-11.6096
寛文	-11.6096
見当	-11.6097
に任じられた	-11.61
はただ	-11.6101
▁e	-11.6101
並び	-11.6102
モラ	-11.6102
揃	-11.6103
に移	-11.6105
詳しい	-11.6106
ハリス	-11.6106
うまい	-11.6106
特別番組	-11.6107
漏	-11.6107
杏	-11.6109
1875	-11.6113
を主張し	-11.6113
進水	-11.6113
改称	-11.6113
おおむね	-11.6114
ぺ	-11.6114
衣服	-11.6115
が進む	-11.6116
出羽	-11.6117
親族	-11.6117
1800	-11.6118
乗せ	-11.6118
飛び出し	-11.6118
若く	-11.6119
数少ない	-11.6122
等は	-11.6123
改ページ	-11.6124
ヴィク	-11.6125
戯	-11.6126
人たちは	-11.6126
曖昧	-11.6126
だけだった	-11.6127
を全て	-11.6127
普	-11.6127
ローレンス	-11.6128
ウト	-11.613
擬	-11.613
の普及	-11.6131
オフに	-11.6132
親方	-11.6134
スタンダード	-11.6135
しておく	-11.6136
El	-11.6137
最長	-11.6137
流用	-11.6137
を破って	-11.6138
たって	-11.6139
遠藤	-11.6139
場合でも	-11.6141
引き分け	-11.6142
様子が	-11.6142
をもち	-11.6143
連敗	-11.6143
出演する	-11.6143
本堂	-11.6143
夷	-11.6144
ファイア	-11.6144
もらい	-11.6144
ることも	-11.6146
スポ	-11.6146
だけでは	-11.6147
並んで	-11.6149
適合	-11.615
処女	-11.6151
暴動	-11.6151
下関	-11.6151
ae	-11.6152
に指定され	-11.6152
脅	-11.6153
クハ	-11.6154
sc	-11.6154
設定された	-11.6155
ないよう	-11.6158
ホリ	-11.6159
家から	-11.6159
ディーゼル	-11.6161
テレビ局	-11.6162
授け	-11.6162
ダグラス	-11.6162
推理	-11.6162
赴	-11.6163
を収録	-11.6165
心から	-11.6166
東山	-11.6166
徴収	-11.6167
たものである	-11.6169
保育	-11.617
疲労	-11.617
に従事した	-11.617
に編入	-11.6176
日本の政治家	-11.6176
年金	-11.6177
この試合	-11.6177
冷たい	-11.6177
テッド	-11.6177
宰相	-11.6179
を挙げている	-11.6181
高層	-11.6182
シェン	-11.6182
そいつ	-11.6182
ワーナー	-11.6183
訪ねて	-11.6183
安倍	-11.6184
するようになる	-11.6185
を入れた	-11.6185
を紹介する	-11.6185
募	-11.6186
忙	-11.6187
焚	-11.6187
▁この際	-11.6188
増設	-11.6189
八百	-11.6189
に任じられ	-11.6189
脂	-11.619
反省	-11.619
新造	-11.619
所は	-11.6191
を殺した	-11.6191
1881	-11.6192
誘拐	-11.6192
紀伊	-11.6192
ペルシア	-11.6193
疑惑	-11.6193
犯行	-11.6195
的存在	-11.6198
土地を	-11.6198
いっ	-11.62
東大	-11.6201
が続き	-11.6202
王女	-11.6204
嶽	-11.6205
惚れ	-11.6206
決着	-11.6207
ポスター	-11.6207
が進められ	-11.621
見かけ	-11.6211
花を	-11.6213
PK	-11.6214
結構	-11.6214
党派	-11.6215
してくれた	-11.6216
召し	-11.6217
対象となる	-11.6218
そこには	-11.6218
▁He	-11.6218
川村	-11.6219
子爵	-11.6221
勝ちを収め	-11.6222
を装備し	-11.6222
を起用	-11.6222
考えていた	-11.6223
窒素	-11.6223
麻雀	-11.6223
St	-11.6224
早くも	-11.6224
UM	-11.6224
まれる	-11.6224
メロ	-11.6224
位を獲得	-11.6225
を必要とし	-11.6226
鳥羽	-11.6226
重要である	-11.6227
除外	-11.6228
ジェル	-11.6228
クマ	-11.6228
ことがない	-11.6229
など様々な	-11.6229
地理学	-11.623
を引き起こす	-11.6232
奪還	-11.6232
にある公立小学校	-11.6232
サッカーリーグ	-11.6232
トリノ	-11.6232
不快	-11.6233
神道	-11.6235
仲介	-11.6236
▁アン	-11.6239
地である	-11.6239
山内	-11.6239
おど	-11.624
正室	-11.624
ile	-11.6241
大友	-11.6245
▁初期の	-11.6246
するほど	-11.6246
ムービー	-11.6247
かへ	-11.6248
南北戦争	-11.6248
あま	-11.6249
便利	-11.6249
イタリア語	-11.6249
ave	-11.625
げな	-11.625
RNA	-11.625
診	-11.6251
しなければ	-11.6251
演奏会	-11.6252
開発した	-11.6252
{	-11.6253
中東	-11.6254
▁ゆう	-11.6255
デール	-11.6255
試合に出場	-11.6255
ひょう	-11.6255
お笑い	-11.6256
諸侯	-11.6257
製薬	-11.6258
を変える	-11.6258
Com	-11.6259
込まれる	-11.6259
ってる	-11.626
int	-11.6262
デザインは	-11.6263
に完成した	-11.6264
見せる	-11.6264
オルガン	-11.6264
迫る	-11.6265
競技大会	-11.6265
日放送分	-11.6265
ale	-11.6265
ヒューストン	-11.6267
教育委員会	-11.6268
lin	-11.6269
自立	-11.627
ハミルトン	-11.6271
▁隣接するコムーネは以下の通り	-11.6271
水田	-11.6271
向かって	-11.6272
っています	-11.6274
することがある	-11.6274
足利義	-11.6275
瀬川	-11.6277
大塚	-11.6278
拡大した	-11.6279
賠償	-11.6279
に応じた	-11.6281
管内	-11.6281
表面に	-11.6283
防空	-11.6284
オープンした	-11.6284
講和	-11.6285
たけし	-11.6286
中京	-11.6287
欠け	-11.6287
婚姻	-11.6288
ita	-11.6289
好んで	-11.629
ドウ	-11.6291
To	-11.6292
フロリダ州	-11.6292
神戸市	-11.6293
に使用される	-11.6293
当番組	-11.6293
qu	-11.6293
幻想	-11.6294
遅い	-11.6295
を組み合わせた	-11.6296
式典	-11.6297
椿	-11.6297
▁市立小	-11.6298
渋滞	-11.6298
村山	-11.6298
フォーマット	-11.6298
従軍	-11.6298
締	-11.6299
代当主	-11.6301
デトロイト	-11.6302
荒れ	-11.6302
推奨	-11.6303
これまでに	-11.6304
愛国	-11.6304
短期	-11.6306
藪	-11.6306
織り	-11.6307
異なった	-11.6307
ze	-11.6307
稲荷	-11.6308
ライフル	-11.631
資本主義	-11.631
線の駅	-11.631
わざわざ	-11.6311
二年	-11.6312
信徒	-11.6313
コミ	-11.6314
ニク	-11.6315
尊重	-11.6315
名門	-11.6317
再発	-11.632
院長	-11.6321
本州	-11.6321
ギャラリー	-11.6322
道は	-11.6324
小沢	-11.6326
運送	-11.6326
消し	-11.6328
アメ	-11.6329
カテゴリー	-11.633
少なかった	-11.633
HC	-11.633
アーク	-11.6331
連続で	-11.6331
ホス	-11.6331
が採用された	-11.6331
宣教師	-11.6332
が形成され	-11.6333
にゃ	-11.6333
し始めた	-11.6336
糞	-11.6337
▁翌日	-11.634
転向	-11.6341
ルノー	-11.6341
を活かし	-11.6341
味噌	-11.6342
ケネディ	-11.6342
ナイター	-11.6342
化け	-11.6343
河岸	-11.6343
鋳	-11.6345
体内	-11.6346
法務	-11.6346
oss	-11.6346
外来	-11.6346
公開され	-11.6346
▁OF	-11.6348
ウォン	-11.6349
半数	-11.6349
乗り換え	-11.6349
田辺	-11.635
左派	-11.635
を上回る	-11.635
ユニバーサル	-11.635
ley	-11.6351
ウラン	-11.6353
トミー	-11.6354
好きで	-11.6354
が一般的	-11.6355
二百	-11.6356
ますから	-11.6356
駅周辺	-11.6356
キリスト教徒	-11.6357
飲食店	-11.6357
息子の	-11.6358
という話	-11.636
乞	-11.6361
東西に	-11.6361
骨格	-11.6362
眼が	-11.6364
戻す	-11.6364
unt	-11.6368
ホセ	-11.6369
双子	-11.637
を開いて	-11.6371
後述する	-11.6373
ゲスト出演	-11.6374
ref	-11.6374
畠	-11.6374
1862	-11.6375
ろうとした	-11.6376
ハンス	-11.6376
頓	-11.6377
座標	-11.6377
鎧	-11.6377
フランソワ	-11.6377
親戚	-11.6378
部隊を	-11.6379
はれ	-11.638
1200	-11.6381
江戸幕府	-11.6381
民営化	-11.6382
上にある	-11.6383
ッシ	-11.6383
稼	-11.6383
ステル	-11.6384
を踏まえ	-11.6386
勝った	-11.6387
聖人	-11.6391
海兵隊	-11.6392
世界中の	-11.6392
ヶ丘	-11.6393
示した	-11.6395
フランクフルト	-11.6395
記念碑	-11.6397
リブ	-11.6397
を超えて	-11.6398
キャップ	-11.6398
を採用する	-11.6398
嘉永	-11.6399
ここでは	-11.64
いざ	-11.6401
騎士団	-11.6402
険	-11.6403
の有無	-11.6403
郡にあった村	-11.6403
斜め	-11.6403
pp	-11.6404
▁のちに	-11.6407
行方	-11.6407
ぁ	-11.6408
パレスチナ	-11.6408
免除	-11.641
疾	-11.641
休養	-11.6411
を送って	-11.6411
覺	-11.6411
ようになっていた	-11.6414
電機	-11.6416
勘定	-11.6417
没収	-11.6419
750	-11.6419
が与えられた	-11.642
パト	-11.642
暗黒	-11.6421
博覧会	-11.6422
説明する	-11.6423
展示されている	-11.6423
促	-11.6425
日本橋	-11.6425
以外で	-11.6425
ぶる	-11.6425
意見を	-11.6426
が原因で	-11.6428
使節	-11.6429
ブレン	-11.643
アラビア語	-11.643
ータ	-11.643
に関する法律	-11.6432
勧	-11.6432
紹介された	-11.6432
バージニア	-11.6432
二等	-11.6432
この間	-11.6432
途上	-11.6433
鐵	-11.6434
されることが多い	-11.6435
がかかる	-11.6435
驚く	-11.6436
▁その頃	-11.6437
▁両	-11.6437
木製	-11.6438
カーン	-11.6438
地蔵	-11.6439
後援	-11.6439
の上を	-11.6439
本願寺	-11.644
▁1919	-11.644
シリ	-11.6441
ust	-11.6442
転用	-11.6443
エンジニア	-11.6443
母が	-11.6444
娘を	-11.6444
侯爵	-11.6444
フランシス	-11.6444
成熟	-11.6445
トリック	-11.6445
年末に	-11.6447
合金	-11.6448
私たちは	-11.6448
res	-11.6448
釈迦	-11.6449
へ出て	-11.6449
日活	-11.6449
á	-11.6449
阻害	-11.6449
が建設された	-11.6452
歴史的な	-11.6452
捕らえ	-11.6456
領有	-11.6457
シンガーソングライター	-11.6458
穀	-11.6458
咲き	-11.6459
用いた	-11.646
105	-11.646
回る	-11.6461
碧	-11.6462
中型	-11.6462
を行なった	-11.6462
罪を	-11.6463
的にも	-11.6463
▁まだ	-11.6463
をめぐって	-11.6464
賞賛	-11.6465
MBS	-11.6465
吐き	-11.6466
残念	-11.6467
感心	-11.6468
メカ	-11.6468
を抱き	-11.6468
いくつも	-11.6469
金融機関	-11.647
▁中世	-11.6471
窯	-11.6471
Open	-11.6472
イザ	-11.6472
ans	-11.6472
府中	-11.6475
CT	-11.6477
こととなり	-11.6477
賑	-11.6478
強盗	-11.6479
地上波	-11.6479
が特徴である	-11.6479
出血	-11.6481
競技場	-11.6481
ナポリ	-11.6481
これにより	-11.6482
アルバイト	-11.6483
ターゲット	-11.6483
っぷ	-11.6483
値は	-11.6483
ザイ	-11.6483
長を務めた	-11.6483
機動戦士ガンダム	-11.6485
肘	-11.6485
奥州	-11.6485
値を	-11.6485
存在しない	-11.6485
宮本	-11.6486
▁もちろん	-11.6487
ということである	-11.6489
フェラーリ	-11.6489
を離れて	-11.649
そりゃ	-11.649
カツ	-11.6491
を巡る	-11.6491
ひっ	-11.6492
緊	-11.6493
▁併し	-11.6494
いつた	-11.6494
慶應義塾大学	-11.6494
始まる	-11.6495
川流域	-11.6497
嘗	-11.6498
登り	-11.6498
遺族	-11.6499
ino	-11.6499
に送り	-11.6501
▁黒	-11.6501
放った	-11.6502
島式ホーム	-11.6503
上って	-11.6505
北アメリカ	-11.6505
伊予	-11.6505
1883	-11.6506
附け	-11.6506
鯨	-11.6507
動揺	-11.6508
ひとりで	-11.651
に基づいた	-11.6512
を残し	-11.6513
大蔵	-11.6513
モーニング	-11.6513
の一部として	-11.6514
パレード	-11.6516
▁わたしは	-11.6517
LOVE	-11.6518
が必要となる	-11.6519
位となり	-11.6519
八戸	-11.6519
光り	-11.6521
と答えた	-11.6521
展覧会	-11.6521
として初めて	-11.6521
一人が	-11.6522
麻薬	-11.6522
拍	-11.6524
として活躍した	-11.6525
電報	-11.6527
本数	-11.6527
生きた	-11.653
が一般的である	-11.6531
に行われる	-11.6531
ヤマハ	-11.6532
歌謡	-11.6532
辿	-11.6534
放送していた	-11.6534
へ進学	-11.6535
TY	-11.6535
上院	-11.6535
那須	-11.6535
北端	-11.6536
四季	-11.6537
国旗	-11.6538
爺さん	-11.6539
▁駅番号は	-11.6539
ほんとうに	-11.654
条第	-11.6541
Sc	-11.6541
▁朝	-11.6542
運転手	-11.6543
実写	-11.6544
させるため	-11.6545
▁よって	-11.6545
でプレーし	-11.6546
▁地元	-11.6547
ることなく	-11.6549
決まり	-11.655
国際映画祭	-11.655
反抗	-11.6551
試合に登板し	-11.6553
がまだ	-11.6556
申します	-11.6557
が建設され	-11.6559
あえて	-11.656
カルト	-11.6561
舞い	-11.6562
▁米国	-11.6563
挿絵	-11.6565
葺	-11.6566
モデルは	-11.6566
実体	-11.6566
て来て	-11.6567
を進めた	-11.6567
育つ	-11.6567
好調	-11.6567
オリックス	-11.6568
マド	-11.657
シュル	-11.6571
縞	-11.6571
ビジョン	-11.6572
定義される	-11.6572
歳未満	-11.6573
へ移籍した	-11.6573
▁1926	-11.6573
1863	-11.6574
トキ	-11.6575
大小	-11.6577
を支持する	-11.6577
変わらない	-11.658
に留まった	-11.658
休暇	-11.658
平原	-11.6582
年代まで	-11.6583
アルファベット	-11.6584
ビートルズ	-11.6584
iss	-11.6585
公使	-11.6586
追撃	-11.6586
につながる	-11.6586
ことはできなかった	-11.6589
ミック	-11.659
グリー	-11.6591
を前に	-11.6591
線形	-11.6592
と共通	-11.6594
教官	-11.6594
純粋な	-11.6596
BU	-11.6596
いること	-11.6596
エントリー	-11.6597
放置	-11.6597
電動	-11.6599
属性	-11.6599
定められている	-11.66
に収録された	-11.6602
尽き	-11.6602
沸	-11.6602
朝倉	-11.6603
んば	-11.6603
同誌	-11.6603
探し	-11.6604
なんだか	-11.6605
と主張している	-11.6606
WWE	-11.6607
ショッピングセンター	-11.6608
に分け	-11.661
寄与	-11.661
inc	-11.661
最近では	-11.661
物である	-11.661
たことで	-11.6611
ROM	-11.6611
カタルーニャ	-11.6612
Ro	-11.6612
を通過する	-11.6613
なくとも	-11.6614
dr	-11.6616
は以下の通りである	-11.6616
平地	-11.6616
ロードレース	-11.6617
であったことから	-11.6617
フュー	-11.6618
曲目	-11.6618
タイミング	-11.6619
見ている	-11.662
ヤマト	-11.6621
初回限定盤	-11.6621
マンハッタン	-11.6621
示された	-11.6621
リーグ優勝	-11.6621
遺言	-11.6622
平家	-11.6623
つゝ	-11.6623
宗家	-11.6625
明神	-11.6625
叢	-11.6625
に反して	-11.6625
シム	-11.6625
クラフト	-11.6626
打って	-11.6627
摂津	-11.6627
ないのだ	-11.6628
続いていた	-11.6628
に終わる	-11.6629
バリエーション	-11.663
学んだ	-11.663
傑作	-11.663
すぎて	-11.6631
を卒業後	-11.6631
松原	-11.6632
云わ	-11.6633
50%	-11.6634
聖職者	-11.6634
に渡る	-11.6636
ture	-11.6636
香り	-11.6636
総数	-11.6637
が使われる	-11.6638
投票で	-11.6639
長老	-11.664
來て	-11.6641
監督に就任	-11.6642
イリ	-11.6642
経済学者	-11.6643
シリーズでは	-11.6643
激怒	-11.6644
絶対に	-11.6646
川は	-11.6646
幸い	-11.6646
されたものである	-11.6646
彼と	-11.6646
近年では	-11.6646
ピエ	-11.6647
商船	-11.6649
ランス	-11.6651
近接	-11.6653
役として	-11.6653
閉じ	-11.6654
ウィーク	-11.6654
SR	-11.6655
万年前	-11.6655
住民は	-11.6656
督	-11.6657
救い	-11.6658
組み立て	-11.6659
開いて	-11.666
等級	-11.666
を指して	-11.6661
幌	-11.6661
主席	-11.6661
駅名	-11.6663
発覚	-11.6664
は以下のとおり	-11.6665
ran	-11.6666
凌	-11.6666
労働党	-11.6667
集積	-11.667
挙げ	-11.667
されてしまった	-11.6671
漫才	-11.6671
立たない	-11.6672
議会は	-11.6672
よろしい	-11.6673
ことはなく	-11.6673
既存	-11.6675
▁“	-11.6676
導く	-11.6677
ノット	-11.6677
に準じ	-11.6678
ホイール	-11.668
那覇	-11.668
無所属	-11.668
痕跡	-11.6681
漸く	-11.6681
を直接	-11.6683
指標	-11.6684
っていました	-11.6684
不審	-11.6688
もつと	-11.669
俯	-11.6694
ゆか	-11.6695
に隣接する	-11.6695
樺太	-11.6695
入会	-11.6698
EMI	-11.6698
’	-11.6699
怪し	-11.67
このまま	-11.67
2020	-11.6704
ジャイ	-11.6704
レバー	-11.6705
次は	-11.6705
gi	-11.6705
下野	-11.6706
課税	-11.6707
義理	-11.6707
を担当している	-11.6707
▁mm	-11.6707
プラスチック	-11.6708
出世	-11.6709
特異	-11.6711
セリ	-11.6712
を建設する	-11.6714
こころ	-11.6715
ベロ	-11.6717
天狗	-11.6718
真相	-11.6718
重臣	-11.6719
積極的な	-11.6719
スペクトル	-11.6722
包み	-11.6724
南区	-11.6724
▁CD	-11.6724
お客	-11.6724
を完全に	-11.6725
いかん	-11.6725
わかった	-11.6725
苦戦	-11.6726
おかげで	-11.6726
ボイス	-11.6727
4,000	-11.6727
デリー	-11.6727
講習	-11.6727
囚	-11.6729
アメリカ陸軍	-11.673
雛	-11.6731
ふたたび	-11.6731
視線	-11.6731
液晶	-11.6731
金色	-11.6731
を提供している	-11.6732
を継承した	-11.6735
フィッシュ	-11.6735
括弧	-11.6735
みん	-11.6736
おくれ	-11.6737
豊橋	-11.6737
金メダル	-11.6738
都市である	-11.6738
堪え	-11.6738
この場合	-11.6742
ロップ	-11.6742
第六	-11.6743
▁別名	-11.6743
回し	-11.6743
難しく	-11.6743
慢性	-11.6743
を定め	-11.6744
王室	-11.6745
敗れ	-11.6745
出てきた	-11.6745
廊	-11.6746
自然科学	-11.6746
改組	-11.6748
に仕えた	-11.6748
建て	-11.6748
虐待	-11.6749
特徴として	-11.675
日本の俳優	-11.6752
販売している	-11.6753
勾配	-11.6753
を試みた	-11.6753
▁すべて	-11.6755
松浦	-11.6755
コリン	-11.6755
なってきた	-11.6757
につく	-11.6759
寄って	-11.676
吊り	-11.6763
今井	-11.6763
込んでいる	-11.6764
自慢	-11.6764
教育機関	-11.6766
おなじ	-11.6766
殺した	-11.6768
すぎた	-11.6768
ッポ	-11.6769
高額	-11.6769
楽天	-11.6769
市内に	-11.6771
内藤	-11.6771
物理的	-11.6773
広範囲	-11.6773
いてゐる	-11.6774
本拠	-11.6774
ことが明らか	-11.6775
ニシ	-11.6776
ひさ	-11.6777
に関連する	-11.6778
red	-11.6778
駐在	-11.6779
薄く	-11.678
不十分	-11.678
文部省	-11.6782
単位で	-11.6783
されたり	-11.6783
キッ	-11.6783
高速バス	-11.6784
研究室	-11.6787
ホウ	-11.6787
築かれ	-11.6788
んぼ	-11.6788
del	-11.6789
紅葉	-11.679
冷戦	-11.679
国内外	-11.6791
ニウム	-11.6791
それでは	-11.6791
固め	-11.6793
向いて	-11.6794
在日	-11.6795
升	-11.6795
答える	-11.6796
エキス	-11.6798
以外では	-11.6798
多目的	-11.6799
イグ	-11.6801
圧迫	-11.6802
国体	-11.6802
郡区	-11.6802
焼失	-11.6804
マイクロソフト	-11.6805
を強いられ	-11.6807
自らが	-11.6807
ホモ	-11.6808
翌朝	-11.6808
が追加された	-11.6808
BB	-11.6809
YO	-11.6809
ユーザ	-11.6809
置換	-11.681
っ子	-11.681
趣旨	-11.6811
消息	-11.6812
この時代	-11.6813
ヘビー級王座	-11.6815
▁自分は	-11.6816
もよい	-11.6817
上には	-11.6818
カメ	-11.6818
本家	-11.6818
Blu	-11.6819
当選した	-11.6821
三角形	-11.6821
グン	-11.6822
跨	-11.6824
崇拝	-11.6824
述べ	-11.6825
予定であったが	-11.6825
から来た	-11.6826
ぼくは	-11.6826
基部	-11.6827
お願い	-11.6827
デリ	-11.683
アカデミー賞	-11.683
幸せ	-11.6832
踏切	-11.6832
聖母	-11.6832
有様	-11.6834
六十	-11.6835
いわば	-11.6835
テュー	-11.6836
チカ	-11.6837
}	-11.6837
捻	-11.6837
生没年不詳	-11.6838
年寄	-11.6838
1861	-11.6838
保有する	-11.684
ランキングで	-11.6842
ブロードウェイ	-11.6842
PD	-11.6843
fer	-11.6844
立てて	-11.6844
待つ	-11.6844
笑ひ	-11.6845
表明	-11.6845
誉	-11.6845
対面	-11.6846
福岡市	-11.6847
Java	-11.6847
枯れ	-11.6847
預け	-11.6848
溶け	-11.6849
旋律	-11.6849
苛	-11.6851
亭主	-11.6854
子供を	-11.6854
喪	-11.6854
カウント	-11.6856
分泌	-11.6857
めぐり	-11.6859
アレン	-11.6859
を目的とする	-11.686
Fi	-11.686
総長	-11.6861
との契約	-11.6861
もせず	-11.6862
CB	-11.6862
もう少し	-11.6863
立川	-11.6863
順番	-11.6864
代将軍	-11.6865
▁×	-11.6866
巡回	-11.6866
隣り	-11.6867
不二	-11.6867
に属していた	-11.6867
のタイトルで	-11.6867
声をかけ	-11.6867
起こした	-11.6868
器具	-11.6868
に属している	-11.6868
なんとか	-11.6869
四角	-11.687
逐	-11.687
返事を	-11.687
判定負け	-11.6871
隙間	-11.6871
way	-11.6872
OC	-11.6873
連邦政府	-11.6875
樹脂	-11.6876
クリーク	-11.6877
宝暦	-11.6878
ネーション	-11.6878
行える	-11.6878
TP	-11.688
れなかった	-11.6881
行け	-11.6881
党員	-11.6882
噴	-11.6882
負けを喫し	-11.6883
道中	-11.6884
@	-11.6884
アベニュー	-11.6884
内閣総理大臣	-11.6885
に強い	-11.6886
ようです	-11.6886
することができた	-11.6886
lic	-11.6887
イラストレーター	-11.6889
デジ	-11.689
メンバーとして	-11.689
不安定	-11.6892
負傷した	-11.6893
ゴジラ	-11.6894
デッド	-11.6894
於	-11.6894
を設置する	-11.6897
腫瘍	-11.6898
歴史上	-11.6899
を救う	-11.6899
前まで	-11.6901
漸	-11.6901
存じ	-11.6902
痕	-11.6902
断絶	-11.6903
tre	-11.6904
に打ち	-11.6904
取り扱う	-11.6905
爆破	-11.6907
ニコライ	-11.6907
慌	-11.6907
吊	-11.6908
本文	-11.6908
掃除	-11.6908
▁逆に	-11.6908
新羅	-11.6908
足り	-11.6909
ノック	-11.691
ニコラ	-11.6911
確認できる	-11.6912
自家	-11.6912
鳴らし	-11.6913
ことを示す	-11.6914
僕に	-11.6914
を選んだ	-11.6914
とも言われる	-11.6915
拒	-11.6916
活動を開始	-11.6916
プロレタリア	-11.6917
みどり	-11.6918
秋山	-11.6918
位だった	-11.6919
もど	-11.692
極東	-11.692
日午後	-11.6921
知的	-11.6922
に拠れば	-11.6922
一瞬	-11.6924
東京都立	-11.6924
噛み	-11.6925
射程	-11.6925
に変化	-11.6928
漏れ	-11.6928
女子大学	-11.693
ビック	-11.6931
好評	-11.6932
逃げる	-11.6932
▁la	-11.6933
▁Windows	-11.6933
突撃	-11.6934
とらえ	-11.6935
月上旬	-11.6936
停留場	-11.6936
跳	-11.6936
も無い	-11.6937
採取	-11.6939
は少なく	-11.6939
BBC	-11.6939
スラヴ	-11.694
ミステリー	-11.6941
事である	-11.6941
が原因	-11.6942
山町	-11.6943
ッケ	-11.6945
の大部分は	-11.6945
を制し	-11.6946
人だった	-11.6946
に囲まれ	-11.6946
を読む	-11.6947
に配属され	-11.6947
able	-11.6947
を対象とした	-11.6948
おち	-11.6948
例もある	-11.695
フォーミュラ	-11.695
を突破し	-11.6952
連装	-11.6953
分配	-11.6954
含め	-11.6954
GK	-11.6955
que	-11.6956
問屋	-11.6959
織物	-11.6959
んじゃ	-11.6959
が完成した	-11.696
バッテリー	-11.696
ヘッドコーチ	-11.6961
イソ	-11.6962
太郎が	-11.6962
135	-11.6964
固体	-11.6964
二日	-11.6964
に行って	-11.6966
公布	-11.6966
ドクター	-11.6969
暗く	-11.697
試合に出場した	-11.697
稼ぎ	-11.697
LED	-11.6971
とかいう	-11.6972
勉	-11.6972
キャッシュ	-11.6972
野外	-11.6973
せり	-11.6973
となると	-11.6974
に出演し	-11.6974
生地	-11.6975
落とす	-11.6976
失敗した	-11.6976
押さえ	-11.6977
アラビア	-11.6977
▁World	-11.6978
州都	-11.6978
ade	-11.6979
数回	-11.698
ゆみ	-11.6982
度目	-11.6982
を知って	-11.6982
進撃	-11.6982
を結んだ	-11.6983
迎撃	-11.6983
写真家	-11.6984
白石	-11.6984
封鎖	-11.6984
が誕生した	-11.6985
ゆっくり	-11.6986
企て	-11.6987
国会議員	-11.6989
に就く	-11.6989
監修	-11.6989
佐竹	-11.699
硝子	-11.6992
に所属している	-11.6992
発車	-11.6992
河野	-11.6992
ナード	-11.6992
青色	-11.6993
Uni	-11.6993
々々	-11.6993
IE	-11.6994
という意味で	-11.6994
対話	-11.6995
その中には	-11.6995
条項	-11.6995
足で	-11.6996
必要があった	-11.6996
を知らない	-11.6996
古く	-11.6997
たところ	-11.6997
面白く	-11.6997
年代にかけて	-11.6998
でさえ	-11.6999
はやや	-11.7
云われ	-11.7001
無料で	-11.7001
などによって	-11.7001
国々	-11.7001
南は	-11.7001
コラ	-11.7002
109	-11.7002
御前	-11.7003
はあるが	-11.7003
を背景に	-11.7003
が図られ	-11.7007
だったので	-11.7007
サンディエゴ	-11.7007
観光地	-11.7007
つれ	-11.7008
大森	-11.701
を着て	-11.701
彼も	-11.701
が出来る	-11.701
が登場した	-11.7011
戦目	-11.7011
ココ	-11.7012
硬貨	-11.7012
意欲	-11.7012
変な	-11.7012
[...]
